<unk>	0
<s>	0
</s>	0
▁t	-0
in	-1
▁a	-2
er	-3
▁th	-4
on	-5
▁s	-6
▁w	-7
re	-8
▁b	-9
at	-10
ou	-11
▁h	-12
▁the	-13
▁c	-14
or	-15
an	-16
st	-17
en	-18
▁m	-19
▁f	-20
▁p	-21
ing	-22
is	-23
it	-24
ar	-25
▁d	-26
le	-27
▁an	-28
om	-29
al	-30
▁to	-31
▁in	-32
▁o	-33
▁n	-34
ch	-35
es	-36
▁y	-37
ion	-38
▁g	-39
ic	-40
▁be	-41
▁l	-42
▁you	-43
ed	-44
ll	-45
as	-46
▁wh	-47
▁of	-48
ve	-49
▁re	-50
▁e	-51
ow	-52
ol	-53
ly	-54
rom	-55
▁and	-56
ver	-57
▁on	-58
et	-59
ay	-60
▁st	-61
ent	-62
ot	-63
▁u	-64
ri	-65
▁for	-66
ation	-67
am	-68
▁ang	-69
▁this	-70
id	-71
strom	-72
▁angstrom	-73
ld	-74
ir	-75
se	-76
ur	-77
▁ne	-78
ce	-79
ct	-80
um	-81
▁sh	-82
ig	-83
ro	-84
ad	-85
im	-86
th	-87
ke	-88
out	-89
▁is	-90
ate	-91
ge	-92
▁j	-93
ra	-94
ter	-95
og	-96
pp	-97
▁ch	-98
▁k	-99
▁se	-100
if	-101
▁ha	-102
▁that	-103
▁her	-104
ut	-105
ie	-106
ss	-107
▁v	-108
ers	-109
ill	-110
op	-111
▁inch	-112
ck	-113
el	-114
one	-115
oo	-116
ith	-117
▁mo	-118
▁what	-119
te	-120
and	-121
▁we	-122
▁with	-123
▁de	-124
▁un	-125
for	-126
▁ma	-127
il	-128
▁it	-129
ine	-130
▁ab	-131
▁are	-132
▁your	-133
ru	-134
▁one	-135
ht	-136
ive	-137
▁how	-138
▁new	-139
ere	-140
our	-141
ul	-142
ist	-143
▁ex	-144
▁le	-145
form	-146
olog	-147
end	-148
ould	-149
▁wor	-150
ess	-151
un	-152
▁why	-153
ash	-154
ear	-155
chn	-156
ome	-157
ology	-158
ust	-159
formation	-160
ci	-161
us	-162
chnology	-163
▁information	-164
▁about	-165
nt	-166
ab	-167
ant	-168
technology	-169
▁sp	-170
ity	-171
qu	-172
ight	-173
▁tr	-174
▁con	-175
▁from	-176
▁W	-177
ium	-178
▁his	-179
art	-180
ally	-181
ort	-182
very	-183
▁pro	-184
▁can	-185
▁do	-186
▁he	-187
la	-188
▁not	-189
▁ri	-190
▁su	-191
iz	-192
▁pre	-193
all	-194
▁po	-195
▁when	-196
ide	-197
▁at	-198
▁man	-199
▁te	-200
▁fa	-201
oun	-202
▁2	-203
▁1	-204
ang	-205
▁out	-206
▁get	-207
are	-208
▁M	-209
ton	-210
os	-211
▁i	-212
ure	-213
▁com	-214
▁af	-215
▁just	-216
ame	-217
ph	-218
▁ar	-219
▁up	-220
▁r	-221
age	-222
ore	-223
▁all	-224
em	-225
od	-226
▁exp	-227
ook	-228
▁li	-229
ood	-230
▁by	-231
der	-232
ect	-233
ous	-234
▁al	-235
ast	-236
▁tw	-237
ition	-238
▁have	-239
erson	-240
▁most	-241
▁pe	-242
▁but	-243
▁A	-244
▁br	-245
ard	-246
▁as	-247
▁go	-248
co	-249
ery	-250
▁she	-251
ain	-252
ment	-253
▁dis	-254
▁has	-255
▁after	-256
ice	-257
▁ad	-258
▁pl	-259
ont	-260
lie	-261
ud	-262
▁their	-263
her	-264
▁make	-265
ap	-266
00	-267
ick	-268
now	-269
ump	-270
ason	-271
▁they	-272
▁thing	-273
ople	-274
▁wom	-275
ep	-276
est	-277
mer	-278
ber	-279
ner	-280
ink	-281
ak	-282
ound	-283
ong	-284
▁people	-285
ry	-286
ite	-287
▁cl	-288
▁happ	-289
ind	-290
ire	-291
▁hour	-292
▁app	-293
▁was	-294
▁lo	-295
▁belie	-296
ack	-297
ia	-298
▁if	-299
ans	-300
▁never	-301
of	-302
▁will	-303
▁sur	-304
ary	-305
▁know	-306
ress	-307
▁say	-308
ag	-309
cc	-310
alth	-311
▁act	-312
▁like	-313
▁believe	-314
ime	-315
ise	-316
oci	-317
▁every	-318
mon	-319
▁gu	-320
▁ph	-321
▁none	-322
▁im	-323
ashing	-324
int	-325
▁mar	-326
ass	-327
iv	-328
day	-329
cre	-330
▁its	-331
ence	-332
ashington	-333
eryll	-334
▁beryll	-335
▁beryllium	-336
▁rich	-337
angle	-338
▁who	-339
▁star	-340
▁trump	-341
▁sa	-342
ies	-343
▁year	-344
ile	-345
▁or	-346
iver	-347
▁hel	-348
▁could	-349
ian	-350
▁here	-351
▁over	-352
to	-353
▁than	-354
ich	-355
▁me	-356
ates	-357
▁ro	-358
▁happen	-359
▁20	-360
person	-361
▁qu	-362
▁co	-363
ble	-364
sing	-365
▁ast	-366
▁reason	-367
▁Washington	-368
old	-369
▁work	-370
ild	-371
ip	-372
▁no	-373
erely	-374
▁merely	-375
▁rep	-376
ty	-377
▁fe	-378
▁tra	-379
▁vol	-380
▁show	-381
atch	-382
ree	-383
au	-384
ited	-385
ife	-386
▁some	-387
ven	-388
lo	-389
ase	-390
▁should	-391
▁mu	-392
atine	-393
▁state	-394
▁these	-395
▁astatine	-396
ple	-397
tle	-398
hing	-399
▁us	-400
gh	-401
▁woman	-402
▁volition	-403
urn	-404
ach	-405
▁time	-406
up	-407
▁ra	-408
▁day	-409
▁off	-410
able	-411
▁now	-412
ident	-413
▁inter	-414
ssoci	-415
pt	-416
led	-417
▁tru	-418
▁fo	-419
▁pr	-420
▁much	-421
act	-422
▁so	-423
ssociate	-424
gan	-425
▁ag	-426
sen	-427
ord	-428
▁201	-429
ange	-430
▁bu	-431
own	-432
▁fir	-433
ath	-434
▁gr	-435
Nur	-436
Nursing	-437
▁Associate	-438
ix	-439
sh	-440
ek	-441
ue	-442
ish	-443
▁per	-444
▁am	-445
▁jo	-446
Un	-447
▁there	-448
ake	-449
ght	-450
▁arsen	-451
▁heres	-452
▁univer	-453
ub	-454
ald	-455
▁more	-456
▁play	-457
▁C	-458
ff	-459
irl	-460
ict	-461
igh	-462
Or	-463
cover	-464
ual	-465
▁first	-466
ization	-467
ign	-468
▁arsenic	-469
▁bec	-470
▁home	-471
▁sm	-472
▁ru	-473
▁S	-474
▁res	-475
po	-476
▁brand	-477
ne	-478
▁found	-479
ealth	-480
▁look	-481
per	-482
▁Un	-483
▁United	-484
ial	-485
▁best	-486
▁things	-487
pr	-488
vel	-489
ganization	-490
ory	-491
▁D	-492
▁cou	-493
onald	-494
▁pres	-495
ond	-496
ning	-497
▁ret	-498
▁life	-499
ical	-500
omet	-501
▁col	-502
▁into	-503
▁world	-504
orld	-505
ult	-506
vie	-507
▁phot	-508
meric	-509
▁youll	-510
▁bl	-511
▁vide	-512
▁week	-513
bit	-514
aw	-515
▁bo	-516
▁think	-517
▁old	-518
Organization	-519
ater	-520
Health	-521
▁World	-522
▁war	-523
les	-524
▁did	-525
▁helium	-526
▁face	-527
▁reve	-528
ens	-529
▁would	-530
▁stud	-531
▁T	-532
▁bre	-533
▁comp	-534
raph	-535
▁video	-536
▁somet	-537
man	-538
▁my	-539
▁sho	-540
▁two	-541
▁ke	-542
▁pol	-543
▁need	-544
ade	-545
▁sci	-546
▁ever	-547
▁surpr	-548
▁bet	-549
▁see	-550
▁sol	-551
▁guess	-552
▁lar	-553
St	-554
States	-555
▁child	-556
▁girl	-557
▁rec	-558
▁ob	-559
▁habit	-560
▁game	-561
▁sch	-562
▁way	-563
illion	-564
▁car	-565
▁ser	-566
ograph	-567
ating	-568
▁sc	-569
ance	-570
▁gre	-571
az	-572
▁wont	-573
▁ear	-574
ys	-575
ily	-576
▁big	-577
▁fin	-578
▁may	-579
▁More	-580
amp	-581
▁acc	-582
▁har	-583
▁news	-584
▁donald	-585
other	-586
▁pop	-587
▁sw	-588
▁pri	-589
▁any	-590
▁back	-591
▁O	-592
ting	-593
▁wr	-594
▁something	-595
lic	-596
▁dec	-597
▁uncover	-598
▁part	-599
ose	-600
ac	-601
als	-602
enn	-603
▁en	-604
▁name	-605
ady	-606
▁does	-607
▁dont	-608
riend	-609
ually	-610
▁them	-611
ert	-612
▁which	-613
▁youre	-614
▁ins	-615
ank	-616
▁bash	-617
▁change	-618
▁em	-619
▁ann	-620
▁sex	-621
▁top	-622
av	-623
phone	-624
▁president	-625
ace	-626
▁high	-627
ail	-628
alk	-629
ious	-630
ctor	-631
ough	-632
▁large	-633
▁che	-634
ark	-635
way	-636
year	-637
▁3	-638
▁H	-639
▁hear	-640
ren	-641
▁end	-642
▁might	-643
▁universe	-644
ize	-645
llow	-646
lly	-647
▁ce	-648
▁americ	-649
▁lit	-650
vent	-651
▁cal	-652
▁rem	-653
ool	-654
▁bar	-655
▁B	-656
▁person	-657
br	-658
ated	-659
▁good	-660
▁report	-661
▁oth	-662
di	-663
iss	-664
▁want	-665
book	-666
cret	-667
▁dep	-668
▁iod	-669
▁iodine	-670
▁L	-671
▁str	-672
get	-673
ction	-674
▁many	-675
▁secret	-676
ork	-677
▁win	-678
▁down	-679
▁des	-680
▁food	-681
▁years	-682
ful	-683
ier	-684
▁actually	-685
ouse	-686
▁leg	-687
▁been	-688
▁real	-689
▁popul	-690
cl	-691
▁fam	-692
▁long	-693
▁movie	-694
son	-695
▁imp	-696
yearold	-697
▁G	-698
▁dr	-699
lf	-700
▁bat	-701
▁thr	-702
▁very	-703
▁ac	-704
▁him	-705
▁mon	-706
ative	-707
be	-708
ving	-709
▁follow	-710
▁sk	-711
▁use	-712
▁maj	-713
▁little	-714
orn	-715
▁sim	-716
▁supp	-717
▁major	-718
▁our	-719
wn	-720
vis	-721
▁ho	-722
ause	-723
▁mak	-724
▁J	-725
▁city	-726
iff	-727
point	-728
▁surprise	-729
oney	-730
▁list	-731
▁post	-732
▁op	-733
▁det	-734
▁even	-735
▁stop	-736
▁health	-737
▁night	-738
▁right	-739
ib	-740
ave	-741
uring	-742
▁where	-743
▁fl	-744
▁char	-745
▁million	-746
▁med	-747
▁spe	-748
▁love	-749
▁watch	-750
ames	-751
xt	-752
ince	-753
pping	-754
ublic	-755
vation	-756
▁three	-757
▁facebook	-758
▁sing	-759
reg	-760
▁find	-761
ins	-762
arch	-763
▁cont	-764
▁school	-765
ina	-766
off	-767
▁ind	-768
fl	-769
ane	-770
▁cre	-771
▁head	-772
▁late	-773
▁7	-774
ors	-775
ably	-776
▁May	-777
▁bab	-778
gy	-779
▁cr	-780
▁had	-781
▁tri	-782
covery	-783
arent	-784
▁word	-785
▁really	-786
▁5	-787
ger	-788
io	-789
▁intern	-790
▁4	-791
com	-792
▁air	-793
▁truly	-794
▁six	-795
▁better	-796
du	-797
cks	-798
▁set	-799
▁turn	-800
▁manner	-801
ift	-802
ons	-803
ute	-804
▁ask	-805
▁fun	-806
▁other	-807
▁start	-808
▁under	-809
thing	-810
▁during	-811
bo	-812
▁R	-813
any	-814
▁bad	-815
▁ste	-816
▁travel	-817
▁att	-818
oc	-819
een	-820
▁di	-821
▁ter	-822
umber	-823
▁while	-824
ody	-825
▁apple	-826
▁super	-827
▁discovery	-828
ene	-829
▁depart	-830
▁student	-831
cess	-832
▁add	-833
▁were	-834
▁announ	-835
▁dru	-836
▁mom	-837
▁says	-838
▁again	-839
ics	-840
▁inst	-841
pe	-842
▁help	-843
▁finally	-844
▁sto	-845
regon	-846
▁cele	-847
▁conf	-848
▁money	-849
▁incre	-850
▁sn	-851
▁being	-852
▁photograph	-853
ft	-854
anc	-855
ves	-856
land	-857
▁bla	-858
▁sec	-859
▁care	-860
▁give	-861
▁baby	-862
▁women	-863
ression	-864
▁net	-865
▁pla	-866
▁rel	-867
▁house	-868
▁Oregon	-869
▁reveals	-870
ram	-871
▁let	-872
▁amaz	-873
▁cons	-874
ell	-875
line	-876
ness	-877
▁bus	-878
▁resp	-879
▁dad	-880
▁mus	-881
ah	-882
▁N	-883
ower	-884
▁prob	-885
▁take	-886
▁colle	-887
▁friend	-888
fect	-889
▁law	-890
▁mur	-891
▁next	-892
▁following	-893
▁rele	-894
ying	-895
inton	-896
▁shock	-897
▁still	-898
▁twent	-899
ok	-900
▁pot	-901
▁ther	-902
▁iphone	-903
▁won	-904
▁obam	-905
▁count	-906
▁family	-907
▁probably	-908
ng	-909
▁fre	-910
▁dri	-911
▁ide	-912
▁talk	-913
▁well	-914
▁become	-915
▁celebr	-916
▁E	-917
▁met	-918
mp	-919
lor	-920
▁cra	-921
▁men	-922
▁couple	-923
▁scient	-924
▁privation	-925
sw	-926
▁el	-927
▁ele	-928
▁death	-929
▁didnt	-930
ern	-931
▁ent	-932
ature	-933
▁rese	-934
▁theres	-935
ently	-936
▁five	-937
ved	-938
▁hu	-939
ward	-940
bs	-941
vers	-942
app	-943
▁put	-944
▁last	-945
ax	-946
ale	-947
oth	-948
▁pay	-949
aking	-950
ather	-951
▁plan	-952
▁thats	-953
▁prof	-954
▁cost	-955
▁return	-956
▁another	-957
▁because	-958
▁6	-959
rist	-960
self	-961
▁open	-962
▁pass	-963
▁sl	-964
▁bra	-965
▁own	-966
▁drug	-967
▁keep	-968
▁made	-969
ording	-970
▁water	-971
▁season	-972
▁research	-973
men	-974
min	-975
▁fr	-976
▁ve	-977
itch	-978
▁hot	-979
▁then	-980
illary	-981
▁expression	-982
▁z	-983
▁av	-984
ding	-985
ones	-986
▁del	-987
▁dog	-988
▁sign	-989
ational	-990
▁twenty	-991
vey	-992
ogle	-993
▁date	-994
▁simple	-995
▁departure	-996
ship	-997
▁got	-998
▁cent	-999
▁diff	-1000
▁four	-1001
▁battle	-1002
▁science	-1003
▁call	-1004
▁internet	-1005
ts	-1006
ced	-1007
vor	-1008
ampa	-1009
▁tele	-1010
▁quest	-1011
▁murder	-1012
ye	-1013
arn	-1014
unch	-1015
ney	-1016
augh	-1017
▁mem	-1018
▁going	-1019
gest	-1020
▁red	-1021
▁poke	-1022
▁sy	-1023
▁incredi	-1024
▁art	-1025
▁sum	-1026
▁only	-1027
▁read	-1028
▁team	-1029
▁trick	-1030
▁wrong	-1031
ex	-1032
ana	-1033
eet	-1034
cent	-1035
iness	-1036
artment	-1037
▁support	-1038
gn	-1039
000	-1040
aut	-1041
ull	-1042
▁idea	-1043
▁offic	-1044
▁share	-1045
▁question	-1046
ann	-1047
▁wed	-1048
▁dead	-1049
▁police	-1050
▁according	-1051
▁ass	-1052
▁drink	-1053
▁survey	-1054
ball	-1055
ield	-1056
outh	-1057
▁sen	-1058
▁miss	-1059
▁young	-1060
▁scientist	-1061
lier	-1062
lymp	-1063
▁beh	-1064
▁hist	-1065
▁polit	-1066
tem	-1067
▁10	-1068
sity	-1069
▁bri	-1070
▁run	-1071
▁2016	-1072
▁body	-1073
▁wear	-1074
▁black	-1075
▁favor	-1076
▁pokemon	-1077
cer	-1078
less	-1079
▁deb	-1080
▁bill	-1081
▁dire	-1082
▁lone	-1083
▁everyone	-1084
▁19	-1085
ional	-1086
▁kind	-1087
▁small	-1088
▁earlier	-1089
▁bir	-1090
▁answ	-1091
leep	-1092
ling	-1093
ross	-1094
▁cla	-1095
▁vir	-1096
▁fall	-1097
▁sexual	-1098
▁popular	-1099
▁9	-1100
ote	-1101
▁ten	-1102
▁thir	-1103
de	-1104
ope	-1105
▁eas	-1106
▁meet	-1107
▁expect	-1108
ury	-1109
▁today	-1110
▁company	-1111
▁cle	-1112
▁seven	-1113
▁former	-1114
▁happened	-1115
me	-1116
▁gl	-1117
aylor	-1118
▁answer	-1119
▁doctor	-1120
▁expert	-1121
imes	-1122
▁feel	-1123
▁music	-1124
▁since	-1125
▁parent	-1126
fore	-1127
▁fan	-1128
▁min	-1129
▁pret	-1130
▁soci	-1131
▁perfect	-1132
▁without	-1133
▁stopping	-1134
cy	-1135
ler	-1136
▁int	-1137
▁doesnt	-1138
▁Dep	-1139
▁boy	-1140
ccess	-1141
▁words	-1142
▁college	-1143
▁Department	-1144
ij	-1145
ug	-1146
und	-1147
▁days	-1148
▁announce	-1149
ats	-1150
port	-1151
▁fil	-1152
▁gen	-1153
▁kid	-1154
▁son	-1155
anger	-1156
▁latest	-1157
arr	-1158
uck	-1159
▁pok	-1160
▁ref	-1161
▁wonder	-1162
▁success	-1163
▁everything	-1164
ces	-1165
its	-1166
aled	-1167
▁kill	-1168
▁ways	-1169
aughter	-1170
▁before	-1171
cut	-1172
ead	-1173
Ener	-1174
▁few	-1175
▁comm	-1176
Energy	-1177
▁learn	-1178
▁power	-1179
▁daughter	-1180
fe	-1181
hn	-1182
red	-1183
▁trans	-1184
▁feature	-1185
▁profess	-1186
▁relation	-1187
▁university	-1188
orth	-1189
▁dem	-1190
▁fast	-1191
▁expla	-1192
▁marri	-1193
▁pregn	-1194
▁youve	-1195
force	-1196
▁leave	-1197
▁second	-1198
▁release	-1199
▁wedding	-1200
▁favorite	-1201
eth	-1202
let	-1203
med	-1204
▁Ch	-1205
blem	-1206
iant	-1207
view	-1208
▁worst	-1209
▁harmon	-1210
▁pretty	-1211
oup	-1212
ider	-1213
▁guy	-1214
ively	-1215
▁hair	-1216
▁hand	-1217
▁isnt	-1218
▁great	-1219
ality	-1220
iring	-1221
▁sleep	-1222
▁revealed	-1223
con	-1224
eor	-1225
ley	-1226
rop	-1227
ible	-1228
ison	-1229
▁aid	-1230
▁mist	-1231
friend	-1232
▁birth	-1233
ublican	-1234
▁happens	-1235
zz	-1236
apt	-1237
gin	-1238
ism	-1239
▁aw	-1240
edly	-1241
▁mark	-1242
▁poké	-1243
▁beaut	-1244
▁produ	-1245
▁those	-1246
▁import	-1247
▁problem	-1248
▁harmonize	-1249
▁x	-1250
ings	-1251
▁cor	-1252
▁eat	-1253
▁fif	-1254
▁occ	-1255
▁free	-1256
▁claim	-1257
dom	-1258
ode	-1259
ines	-1260
ution	-1261
▁2017	-1262
▁semen	-1263
▁whats	-1264
▁inside	-1265
▁8	-1266
ost	-1267
▁ep	-1268
ital	-1269
vest	-1270
vice	-1271
▁cast	-1272
▁mess	-1273
▁class	-1274
▁single	-1275
▁important	-1276
ik	-1277
▁es	-1278
▁pa	-1279
ject	-1280
pect	-1281
▁book	-1282
▁come	-1283
▁campa	-1284
▁mother	-1285
▁retire	-1286
▁worlds	-1287
▁incredible	-1288
▁hom	-1289
▁mat	-1290
▁mor	-1291
▁sit	-1292
itter	-1293
▁jenn	-1294
▁lady	-1295
▁mich	-1296
▁study	-1297
yn	-1298
aur	-1299
▁emp	-1300
▁tre	-1301
ising	-1302
▁left	-1303
ations	-1304
▁sport	-1305
▁evening	-1306
▁pokémon	-1307
ams	-1308
▁hum	-1309
ought	-1310
▁away	-1311
▁rest	-1312
▁tell	-1313
ographic	-1314
time	-1315
▁cut	-1316
▁giv	-1317
▁mil	-1318
▁mod	-1319
▁upd	-1320
▁val	-1321
ption	-1322
▁diet	-1323
▁huge	-1324
▁lead	-1325
▁pain	-1326
▁said	-1327
▁appro	-1328
▁break	-1329
▁spend	-1330
▁history	-1331
ael	-1332
wood	-1333
▁pat	-1334
ities	-1335
ready	-1336
▁check	-1337
▁already	-1338
ues	-1339
cial	-1340
work	-1341
▁ant	-1342
▁bro	-1343
▁cur	-1344
▁hit	-1345
▁reg	-1346
▁rum	-1347
▁too	-1348
agram	-1349
▁making	-1350
▁instagram	-1351
▁relationship	-1352
erc	-1353
▁ed	-1354
▁try	-1355
▁vis	-1356
▁fact	-1357
▁foot	-1358
vision	-1359
▁heart	-1360
▁makes	-1361
▁party	-1362
▁truth	-1363
▁confir	-1364
ott	-1365
▁er	-1366
▁ty	-1367
ivity	-1368
▁incl	-1369
▁once	-1370
ically	-1371
▁catch	-1372
▁obama	-1373
▁space	-1374
▁viral	-1375
▁business	-1376
▁je	-1377
icul	-1378
lish	-1379
oice	-1380
▁group	-1381
▁behind	-1382
▁detect	-1383
▁likely	-1384
eri	-1385
oid	-1386
val	-1387
▁la	-1388
acter	-1389
tempt	-1390
▁live	-1391
▁male	-1392
▁mind	-1393
iously	-1394
▁eight	-1395
▁happy	-1396
▁occup	-1397
▁director	-1398
eral	-1399
▁past	-1400
▁prot	-1401
ertain	-1402
▁cancer	-1403
opt	-1404
ung	-1405
▁easy	-1406
▁shes	-1407
▁getting	-1408
▁occupation	-1409
my	-1410
ait	-1411
onse	-1412
teen	-1413
▁age	-1414
▁dre	-1415
▁ext	-1416
▁film	-1417
▁fore	-1418
▁stre	-1419
▁actor	-1420
▁response	-1421
alf	-1422
the	-1423
ster	-1424
▁mag	-1425
▁acqu	-1426
▁less	-1427
▁shoot	-1428
▁strange	-1429
xual	-1430
▁die	-1431
▁mis	-1432
▁sub	-1433
month	-1434
▁rock	-1435
▁color	-1436
merican	-1437
▁player	-1438
▁clinton	-1439
▁television	-1440
▁topographic	-1441
iju	-1442
ike	-1443
ior	-1444
sol	-1445
▁ago	-1446
igner	-1447
▁cant	-1448
▁park	-1449
▁poss	-1450
ijuana	-1451
lympic	-1452
▁light	-1453
llywood	-1454
▁weight	-1455
ee	-1456
room	-1457
ways	-1458
▁cry	-1459
▁job	-1460
field	-1461
▁writ	-1462
▁includ	-1463
▁invest	-1464
▁number	-1465
▁update	-1466
▁American	-1467
gg	-1468
cal	-1469
▁tax	-1470
▁yet	-1471
unity	-1472
▁anim	-1473
▁true	-1474
▁photos	-1475
▁mc	-1476
ions	-1477
▁far	-1478
▁rad	-1479
▁coff	-1480
▁john	-1481
ardash	-1482
▁terri	-1483
▁series	-1484
▁billion	-1485
▁working	-1486
dd	-1487
go	-1488
gr	-1489
arly	-1490
aste	-1491
atur	-1492
word	-1493
▁inc	-1494
▁tom	-1495
▁doing	-1496
▁order	-1497
▁hillary	-1498
▁through	-1499
▁marijuana	-1500
▁tar	-1501
▁beer	-1502
▁deal	-1503
▁dist	-1504
▁land	-1505
▁month	-1506
▁worth	-1507
ient	-1508
▁div	-1509
▁white	-1510
▁always	-1511
▁theory	-1512
▁against	-1513
sy	-1514
▁au	-1515
ilar	-1516
pper	-1517
ately	-1518
▁brain	-1519
▁bring	-1520
▁teach	-1521
▁weekend	-1522
wh	-1523
idd	-1524
▁nb	-1525
amer	-1526
dict	-1527
ides	-1528
▁bas	-1529
▁cru	-1530
▁par	-1531
lling	-1532
▁brit	-1533
▁cour	-1534
▁mass	-1535
▁narr	-1536
▁excess	-1537
▁google	-1538
▁attempt	-1539
▁acquiring	-1540
izz	-1541
ifer	-1542
stem	-1543
▁def	-1544
▁dra	-1545
tocks	-1546
▁mile	-1547
number	-1548
▁photo	-1549
▁react	-1550
▁buttocks	-1551
▁pregnant	-1552
ym	-1553
air	-1554
gen	-1555
ges	-1556
orm	-1557
▁tv	-1558
pped	-1559
ters	-1560
▁ing	-1561
▁lot	-1562
▁buzz	-1563
▁mean	-1564
▁poll	-1565
▁walk	-1566
vising	-1567
▁model	-1568
▁career	-1569
▁legend	-1570
▁america	-1571
▁kardash	-1572
▁mistake	-1573
▁political	-1574
leg	-1575
▁tit	-1576
▁grow	-1577
ensive	-1578
undred	-1579
▁legal	-1580
▁stand	-1581
▁public	-1582
▁summer	-1583
▁nothing	-1584
ric	-1585
atic	-1586
ator	-1587
ilet	-1588
ount	-1589
▁tip	-1590
▁done	-1591
▁save	-1592
▁spot	-1593
▁dress	-1594
▁dating	-1595
▁devising	-1596
urs	-1597
vern	-1598
▁bed	-1599
▁gra	-1600
▁gets	-1601
▁kids	-1602
▁lose	-1603
▁skin	-1604
▁chang	-1605
▁called	-1606
ars	-1607
▁ey	-1608
ision	-1609
▁offer	-1610
▁short	-1611
▁times	-1612
▁experi	-1613
▁indust	-1614
▁biggest	-1615
▁recently	-1616
▁narrative	-1617
ma	-1618
ogn	-1619
head	-1620
ific	-1621
▁cri	-1622
▁flo	-1623
▁ill	-1624
creen	-1625
eorge	-1626
▁fans	-1627
▁soon	-1628
▁comes	-1629
▁thank	-1630
osexual	-1631
▁differ	-1632
▁govern	-1633
▁street	-1634
▁approach	-1635
▁discover	-1636
▁battlefield	-1637
ety	-1638
ole	-1639
▁ir	-1640
redi	-1641
▁est	-1642
▁disc	-1643
▁move	-1644
▁went	-1645
▁avoid	-1646
▁tweet	-1647
redient	-1648
▁prince	-1649
▁theyre	-1650
▁toilet	-1651
▁actress	-1652
▁explain	-1653
▁jennifer	-1654
▁interview	-1655
aff	-1656
ato	-1657
oon	-1658
bert	-1659
ense	-1660
▁fem	-1661
▁gay	-1662
▁pie	-1663
▁spr	-1664
▁wel	-1665
ention	-1666
▁grand	-1667
▁means	-1668
▁thirty	-1669
▁country	-1670
pl	-1671
umb	-1672
▁Wh	-1673
▁ev	-1674
arre	-1675
▁cat	-1676
▁fix	-1677
▁gri	-1678
▁hor	-1679
▁weve	-1680
▁wife	-1681
solute	-1682
▁least	-1683
▁calend	-1684
▁target	-1685
▁absolute	-1686
▁ingredient	-1687
iel	-1688
▁os	-1689
akes	-1690
▁inv	-1691
conom	-1692
▁Mich	-1693
▁hank	-1694
▁sand	-1695
▁self	-1696
▁shop	-1697
verage	-1698
▁hours	-1699
▁later	-1700
▁coffee	-1701
▁econom	-1702
▁excessively	-1703
nd	-1704
ze	-1705
fit	-1706
use	-1707
▁11	-1708
▁15	-1709
icle	-1710
▁200	-1711
▁bey	-1712
▁fla	-1713
▁fut	-1714
▁kim	-1715
icult	-1716
iforn	-1717
▁cond	-1718
▁fire	-1719
▁mill	-1720
▁rece	-1721
▁snap	-1722
▁test	-1723
▁story	-1724
▁message	-1725
▁predict	-1726
▁calendar	-1727
▁interest	-1728
▁difficult	-1729
gers	-1730
ices	-1731
ming	-1732
▁100	-1733
▁arg	-1734
▁hol	-1735
▁sug	-1736
▁card	-1737
▁full	-1738
▁White	-1739
▁place	-1740
▁shows	-1741
activity	-1742
▁morning	-1743
▁presidential	-1744
▁Cl	-1745
▁biz	-1746
▁kat	-1747
▁emplo	-1748
▁exerc	-1749
▁fight	-1750
▁attack	-1751
▁eating	-1752
▁future	-1753
▁record	-1754
▁saying	-1755
▁amazing	-1756
▁bizarre	-1757
▁product	-1758
ny	-1759
oft	-1760
rol	-1761
til	-1762
▁da	-1763
band	-1764
▁opp	-1765
ially	-1766
▁cand	-1767
▁gold	-1768
▁line	-1769
▁pict	-1770
▁vote	-1771
▁alone	-1772
▁system	-1773
▁Clinton	-1774
▁friends	-1775
▁restaur	-1776
▁industry	-1777
ps	-1778
ird	-1779
oke	-1780
ows	-1781
ror	-1782
▁ap	-1783
flix	-1784
fort	-1785
iest	-1786
ists	-1787
tern	-1788
▁blo	-1789
▁sus	-1790
▁vac	-1791
▁bene	-1792
▁prom	-1793
▁side	-1794
▁york	-1795
illing	-1796
▁elect	-1797
▁wants	-1798
ifornia	-1799
▁common	-1800
▁moment	-1801
▁confirm	-1802
▁twitter	-1803
▁americans	-1804
▁government	-1805
▁successful	-1806
▁surprising	-1807
▁Sw	-1808
▁ic	-1809
▁Rep	-1810
▁key	-1811
▁sun	-1812
ument	-1813
▁case	-1814
▁wild	-1815
▁longer	-1816
▁screen	-1817
▁taylor	-1818
▁picture	-1819
▁Republican	-1820
39	-1821
bly	-1822
ten	-1823
▁18	-1824
▁vi	-1825
ecut	-1826
▁als	-1827
▁bit	-1828
▁fit	-1829
ouble	-1830
▁hate	-1831
▁must	-1832
▁town	-1833
▁wait	-1834
▁chick	-1835
▁earth	-1836
▁looks	-1837
▁beauty	-1838
▁netflix	-1839
▁apparent	-1840
▁official	-1841
alt	-1842
ocr	-1843
ract	-1844
▁eng	-1845
▁los	-1846
▁mic	-1847
ister	-1848
▁dise	-1849
▁else	-1850
▁teen	-1851
ousand	-1852
▁cause	-1853
▁green	-1854
▁Hillary	-1855
▁airport	-1856
▁buzzword	-1857
▁kardashian	-1858
▁scientists	-1859
ew	-1860
fu	-1861
que	-1862
rup	-1863
▁ban	-1864
▁bot	-1865
inger	-1866
▁Tell	-1867
▁base	-1868
▁stun	-1869
▁unus	-1870
▁title	-1871
ecutive	-1872
▁hanker	-1873
▁prison	-1874
▁result	-1875
▁Go	-1876
ains	-1877
anda	-1878
eter	-1879
sequ	-1880
▁fri	-1881
▁obs	-1882
ender	-1883
▁drop	-1884
▁role	-1885
▁took	-1886
▁wars	-1887
usband	-1888
▁hilar	-1889
▁Google	-1890
▁christ	-1891
▁trumps	-1892
▁healthy	-1893
▁someone	-1894
▁shouldnt	-1895
▁restaurant	-1896
uc	-1897
ied	-1898
nes	-1899
ral	-1900
ret	-1901
ron	-1902
vin	-1903
yle	-1904
▁kh	-1905
used	-1906
ween	-1907
▁hes	-1908
imate	-1909
lando	-1910
ories	-1911
▁chir	-1912
▁hard	-1913
▁host	-1914
▁jack	-1915
▁used	-1916
option	-1917
▁remem	-1918
▁father	-1919
▁matter	-1920
▁medium	-1921
▁though	-1922
▁disease	-1923
▁thought	-1924
▁populate	-1925
▁students	-1926
▁vacation	-1927
▁condition	-1928
▁absolutely	-1929
ape	-1930
cri	-1931
ove	-1932
rit	-1933
istr	-1934
▁eur	-1935
urity	-1936
▁clos	-1937
▁rare	-1938
▁giant	-1939
▁milit	-1940
▁danger	-1941
▁planet	-1942
▁certain	-1943
▁consequ	-1944
▁perform	-1945
▁exercise	-1946
▁apparently	-1947
res	-1948
aine	-1949
gain	-1950
iber	-1951
llar	-1952
pose	-1953
▁tot	-1954
▁also	-1955
▁capt	-1956
▁chem	-1957
▁rank	-1958
▁sent	-1959
▁west	-1960
▁around	-1961
▁comple	-1962
▁office	-1963
▁states	-1964
▁between	-1965
▁chirrup	-1966
▁hundred	-1967
▁function	-1968
▁experience	-1969
▁homosexual	-1970
car	-1971
omb	-1972
udi	-1973
▁12	-1974
more	-1975
▁rid	-1976
order	-1977
▁both	-1978
▁imag	-1979
▁wage	-1980
ingdom	-1981
▁arent	-1982
▁batch	-1983
▁repla	-1984
▁sound	-1985
▁train	-1986
▁animal	-1987
▁design	-1988
▁others	-1989
▁sevent	-1990
▁employe	-1991
▁special	-1992
▁national	-1993
▁yourself	-1994
▁reportedly	-1995
ele	-1996
iba	-1997
ony	-1998
row	-1999
urb	-2000
cing	-2001
emat	-2002
ford	-2003
▁alm	-2004
▁mer	-2005
▁mot	-2006
▁nfl	-2007
▁hint	-2008
▁safe	-2009
▁swim	-2010
▁comed	-2011
▁ident	-2012
▁veter	-2013
▁forget	-2014
▁launch	-2015
▁bargain	-2016
▁millenn	-2017
▁percent	-2018
▁anything	-2019
▁children	-2020
▁remember	-2021
▁shocking	-2022
dit	-2023
ili	-2024
unt	-2025
uss	-2026
icer	-2027
▁bru	-2028
▁buy	-2029
▁dev	-2030
▁kil	-2031
▁pur	-2032
▁vot	-2033
▁dish	-2034
▁pick	-2035
ursday	-2036
▁asked	-2037
▁begin	-2038
▁games	-2039
▁girls	-2040
▁media	-2041
▁smart	-2042
▁Taylor	-2043
▁campaign	-2044
▁celebrity	-2045
▁consequence	-2046
we	-2047
ata	-2048
att	-2049
osp	-2050
oles	-2051
▁alb	-2052
▁den	-2053
▁dig	-2054
▁sil	-2055
cking	-2056
▁bull	-2057
▁each	-2058
▁fict	-2059
▁orig	-2060
▁told	-2061
pected	-2062
▁camer	-2063
▁daily	-2064
▁finds	-2065
▁almost	-2066
▁insane	-2067
▁nether	-2068
▁social	-2069
▁Olympic	-2070
▁parents	-2071
▁expensive	-2072
▁millennial	-2073
zy	-2074
erm	-2075
ris	-2076
uit	-2077
ails	-2078
ency	-2079
umer	-2080
▁gar	-2081
▁pos	-2082
ander	-2083
child	-2084
▁2014	-2085
▁beat	-2086
▁bend	-2087
▁blow	-2088
▁hell	-2089
▁hosp	-2090
▁surv	-2091
▁unex	-2092
intend	-2093
▁clean	-2094
▁hotel	-2095
▁micro	-2096
▁until	-2097
▁appear	-2098
▁unusual	-2099
▁shooting	-2100
amed	-2101
ared	-2102
igan	-2103
ourn	-2104
stic	-2105
▁lay	-2106
▁low	-2107
iddle	-2108
▁2013	-2109
▁bank	-2110
▁cust	-2111
▁eyes	-2112
▁fail	-2113
▁hole	-2114
▁adult	-2115
▁fifty	-2116
▁plant	-2117
▁quite	-2118
▁member	-2119
▁include	-2120
▁american	-2121
▁thousand	-2122
▁dangerous	-2123
▁announcement	-2124
▁professional	-2125
lt	-2126
oy	-2127
box	-2128
bre	-2129
ged	-2130
xit	-2131
▁ca	-2132
ancy	-2133
medi	-2134
test	-2135
utes	-2136
▁fat	-2137
▁fig	-2138
▁san	-2139
▁conn	-2140
▁prem	-2141
▁seem	-2142
▁point	-2143
▁press	-2144
▁swift	-2145
ination	-2146
▁immedi	-2147
▁market	-2148
▁origin	-2149
▁singer	-2150
▁snapch	-2151
▁powerful	-2152
▁immediately	-2153
Ta	-2154
bu	-2155
cra	-2156
ief	-2157
kar	-2158
ock	-2159
▁Ar	-2160
▁cy	-2161
arth	-2162
five	-2163
▁ath	-2164
▁bag	-2165
▁ben	-2166
▁box	-2167
▁jon	-2168
Taiba	-2169
watch	-2170
▁Lash	-2171
▁auth	-2172
▁choo	-2173
▁form	-2174
▁requ	-2175
▁stat	-2176
▁trad	-2177
▁wall	-2178
itchen	-2179
▁album	-2180
▁amaze	-2181
▁gross	-2182
▁phone	-2183
▁queen	-2184
▁rumor	-2185
officer	-2186
▁adoles	-2187
▁custom	-2188
▁online	-2189
▁terrif	-2190
▁Lashkar	-2191
▁kitchen	-2192
▁michael	-2193
▁thrones	-2194
▁drinking	-2195
▁security	-2196
▁adolescent	-2197
▁personality	-2198
hol	-2199
ned	-2200
▁25	-2201
▁ur	-2202
ased	-2203
back	-2204
ians	-2205
name	-2206
▁exc	-2207
▁eye	-2208
▁gun	-2209
▁lup	-2210
olina	-2211
▁item	-2212
▁kate	-2213
▁penn	-2214
▁such	-2215
▁dream	-2216
▁human	-2217
▁trial	-2218
▁across	-2219
▁brexit	-2220
▁enough	-2221
▁throne	-2222
▁teacher	-2223
▁hospital	-2224
▁marriage	-2225
dy	-2226
ka	-2227
ta	-2228
ado	-2229
ify	-2230
cept	-2231
cket	-2232
come	-2233
down	-2234
erry	-2235
roll	-2236
▁bes	-2237
▁boo	-2238
▁gam	-2239
▁inf	-2240
▁lif	-2241
▁mel	-2242
▁mid	-2243
▁rob	-2244
▁tur	-2245
ester	-2246
rence	-2247
▁hero	-2248
▁stra	-2249
▁user	-2250
▁drive	-2251
▁miley	-2252
ailable	-2253
vention	-2254
▁amazon	-2255
▁opport	-2256
▁writer	-2257
▁control	-2258
▁telephone	-2259
▁Th	-2260
avid	-2261
tell	-2262
▁Cal	-2263
▁eff	-2264
▁neg	-2265
asure	-2266
▁insp	-2267
▁kick	-2268
▁port	-2269
▁song	-2270
▁vict	-2271
▁decid	-2272
▁obser	-2273
▁prove	-2274
▁ready	-2275
▁visit	-2276
▁whole	-2277
itation	-2278
▁giving	-2279
▁chicken	-2280
▁husband	-2281
▁interru	-2282
▁massive	-2283
▁different	-2284
ms	-2285
ica	-2286
aper	-2287
ases	-2288
rest	-2289
▁egg	-2290
▁jud	-2291
▁pen	-2292
▁web	-2293
fully	-2294
▁epis	-2295
▁rule	-2296
▁sale	-2297
▁award	-2298
▁build	-2299
▁close	-2300
▁heard	-2301
▁image	-2302
▁lives	-2303
▁wasnt	-2304
▁driver	-2305
▁potter	-2306
▁spider	-2307
▁stress	-2308
▁besides	-2309
▁service	-2310
▁accident	-2311
▁addition	-2312
▁chemical	-2313
▁decision	-2314
▁football	-2315
▁snapchat	-2316
▁overwatch	-2317
▁campaigner	-2318
bl	-2319
ara	-2320
iam	-2321
olf	-2322
▁13	-2323
▁kn	-2324
ever	-2325
gery	-2326
ired	-2327
ries	-2328
▁fis	-2329
▁iss	-2330
▁lab	-2331
gress	-2332
▁cool	-2333
▁dest	-2334
▁ment	-2335
▁porn	-2336
▁snow	-2337
▁tren	-2338
orable	-2339
▁magaz	-2340
▁female	-2341
▁having	-2342
▁terror	-2343
▁article	-2344
▁century	-2345
▁couldnt	-2346
▁married	-2347
▁argument	-2348
▁investig	-2349
▁available	-2350
▁boyfriend	-2351
▁perfective	-2352
▁technology	-2353
ida	-2354
isk	-2355
itt	-2356
pre	-2357
rus	-2358
ume	-2359
▁16	-2360
▁il	-2361
hood	-2362
ised	-2363
side	-2364
▁aut	-2365
aniel	-2366
using	-2367
where	-2368
▁ball	-2369
▁brid	-2370
▁came	-2371
▁crit	-2372
▁goes	-2373
▁link	-2374
▁nine	-2375
▁pool	-2376
atural	-2377
ustral	-2378
▁Swift	-2379
▁blood	-2380
▁crazy	-2381
▁divor	-2382
▁frequ	-2383
▁local	-2384
▁author	-2385
▁reveal	-2386
▁strong	-2387
▁address	-2388
▁minutes	-2389
▁military	-2390
▁beginning	-2391
▁hollywood	-2392
▁professor	-2393
▁opportunity	-2394
by	-2395
ese	-2396
ham	-2397
aken	-2398
aker	-2399
ault	-2400
etic	-2401
▁cop	-2402
▁deg	-2403
▁din	-2404
▁gro	-2405
▁nin	-2406
allen	-2407
light	-2408
▁cash	-2409
▁gift	-2410
▁sequ	-2411
▁early	-2412
▁intro	-2413
▁lunch	-2414
▁piece	-2415
▁trade	-2416
▁using	-2417
▁voice	-2418
▁button	-2419
▁coming	-2420
▁months	-2421
▁recogn	-2422
▁winner	-2423
▁challen	-2424
▁station	-2425
▁celebrated	-2426
▁discovered	-2427
▁officially	-2428
▁retirement	-2429
bor	-2430
cul	-2431
ots	-2432
▁uk	-2433
ibly	-2434
▁glo	-2435
▁mcd	-2436
▁nbc	-2437
▁rom	-2438
▁sal	-2439
ether	-2440
ility	-2441
osion	-2442
rench	-2443
▁cook	-2444
▁fake	-2445
▁loss	-2446
▁reun	-2447
▁weed	-2448
▁South	-2449
▁const	-2450
▁event	-2451
▁known	-2452
▁pound	-2453
▁unite	-2454
▁candid	-2455
▁choose	-2456
▁disapp	-2457
▁figure	-2458
▁looking	-2459
▁replace	-2460
▁sociable	-2461
▁announced	-2462
▁unexpected	-2463
bt	-2464
ky	-2465
ena	-2466
ius	-2467
lin	-2468
mas	-2469
xic	-2470
ativ	-2471
▁bur	-2472
▁fru	-2473
▁sat	-2474
eness	-2475
usive	-2476
velop	-2477
▁blue	-2478
▁code	-2479
▁deep	-2480
▁emer	-2481
▁laws	-2482
▁reci	-2483
▁room	-2484
▁same	-2485
coming	-2486
onalds	-2487
tellig	-2488
▁click	-2489
▁cover	-2490
▁crime	-2491
▁james	-2492
▁breast	-2493
▁center	-2494
▁democr	-2495
▁killed	-2496
▁wholly	-2497
▁beautif	-2498
▁benefit	-2499
▁classic	-2500
▁protect	-2501
▁reasons	-2502
▁surgery	-2503
▁hilarious	-2504
▁mcdonalds	-2505
▁republican	-2506
ii	-2507
ov	-2508
tw	-2509
oud	-2510
une	-2511
▁hy	-2512
body	-2513
char	-2514
like	-2515
mark	-2516
reat	-2517
ston	-2518
▁don	-2519
▁inj	-2520
▁kit	-2521
▁pan	-2522
▁tin	-2523
andon	-2524
orter	-2525
▁able	-2526
▁cult	-2527
▁fund	-2528
▁nail	-2529
▁prev	-2530
▁seen	-2531
▁tick	-2532
▁type	-2533
▁xbox	-2534
ederal	-2535
▁among	-2536
▁court	-2537
▁forty	-2538
▁north	-2539
▁olymp	-2540
▁twice	-2541
▁bottle	-2542
▁contin	-2543
▁degree	-2544
▁entire	-2545
▁nearly	-2546
▁develop	-2547
▁episode	-2548
▁missing	-2549
▁respond	-2550
▁birthday	-2551
▁particul	-2552
na	-2553
ray	-2554
sey	-2555
▁bi	-2556
eles	-2557
ffer	-2558
ique	-2559
ises	-2560
rove	-2561
sych	-2562
▁adm	-2563
▁cap	-2564
▁emb	-2565
cohol	-2566
▁conc	-2567
▁data	-2568
▁half	-2569
▁hide	-2570
▁leav	-2571
▁page	-2572
▁pizz	-2573
▁priv	-2574
gether	-2575
▁Earth	-2576
▁Maine	-2577
▁beach	-2578
▁champ	-2579
▁delay	-2580
▁harry	-2581
▁weird	-2582
ministr	-2583
▁George	-2584
▁advice	-2585
▁anyone	-2586
▁arrest	-2587
▁choice	-2588
▁sequel	-2589
▁average	-2590
▁divorce	-2591
▁propose	-2592
▁protest	-2593
▁results	-2594
▁wearing	-2595
▁adorable	-2596
▁complete	-2597
▁together	-2598
▁beautiful	-2599
▁community	-2600
▁millennials	-2601
cle	-2602
▁30	-2603
▁gh	-2604
amin	-2605
ized	-2606
mate	-2607
phen	-2608
▁cow	-2609
▁jim	-2610
▁nom	-2611
▁airl	-2612
▁bern	-2613
▁dogs	-2614
▁gave	-2615
▁gram	-2616
▁myst	-2617
▁pull	-2618
▁sure	-2619
▁tons	-2620
▁viol	-2621
action	-2622
▁alleg	-2623
▁carri	-2624
▁marry	-2625
▁match	-2626
▁often	-2627
▁psych	-2628
▁south	-2629
▁steve	-2630
▁takes	-2631
atively	-2632
▁county	-2633
▁thanks	-2634
▁abandon	-2635
▁disturb	-2636
▁doctors	-2637
▁suggest	-2638
▁welcome	-2639
▁washington	-2640
11	-2641
ga	-2642
acy	-2643
gas	-2644
iew	-2645
ifs	-2646
new	-2647
▁ny	-2648
▁ow	-2649
ales	-2650
berg	-2651
omed	-2652
▁dam	-2653
▁loc	-2654
▁mad	-2655
arter	-2656
cious	-2657
ingly	-2658
▁Brit	-2659
▁anal	-2660
▁camp	-2661
▁debt	-2662
▁dent	-2663
▁leak	-2664
▁lost	-2665
▁path	-2666
▁russ	-2667
▁shed	-2668
▁size	-2669
▁smok	-2670
▁view	-2671
▁whos	-2672
rovers	-2673
▁angel	-2674
▁costs	-2675
▁pizza	-2676
▁sever	-2677
▁store	-2678
▁buying	-2679
▁debate	-2680
▁genius	-2681
▁marvel	-2682
▁necess	-2683
▁search	-2684
ollywood	-2685
▁alcohol	-2686
▁connect	-2687
▁natural	-2688
▁playing	-2689
▁trouble	-2690
▁warning	-2691
▁americas	-2692
▁explains	-2693
▁attention	-2694
▁seriously	-2695
▁spiderman	-2696
▁controvers	-2697
▁frequently	-2698
▁performance	-2699
▁researchers	-2700
ef	-2701
yr	-2702
bal	-2703
rab	-2704
rey	-2705
▁17	-2706
▁21	-2707
ades	-2708
ager	-2709
elve	-2710
ergy	-2711
iled	-2712
lain	-2713
▁esc	-2714
▁esp	-2715
▁fer	-2716
▁pub	-2717
▁row	-2718
▁tim	-2719
▁tou	-2720
▁via	-2721
allow	-2722
▁cold	-2723
▁kany	-2724
▁phys	-2725
▁wind	-2726
nesday	-2727
▁chief	-2728
▁reach	-2729
▁sense	-2730
▁sweet	-2731
▁decide	-2732
▁harass	-2733
▁living	-2734
▁sports	-2735
▁thinks	-2736
▁turned	-2737
▁twelve	-2738
▁British	-2739
▁Michael	-2740
▁account	-2741
▁deliver	-2742
▁details	-2743
▁himself	-2744
▁talking	-2745
▁personal	-2746
▁Hollywood	-2747
▁sometimes	-2748
rew	-2749
ards	-2750
osus	-2751
▁dun	-2752
▁fox	-2753
▁hur	-2754
▁ice	-2755
▁pet	-2756
arian	-2757
atest	-2758
aught	-2759
eryth	-2760
iment	-2761
osure	-2762
▁Army	-2763
▁Lapp	-2764
▁West	-2765
▁area	-2766
▁bath	-2767
▁cann	-2768
▁flat	-2769
▁join	-2770
▁prin	-2771
▁tend	-2772
▁vill	-2773
return	-2774
▁lupus	-2775
▁mouth	-2776
▁penis	-2777
▁regul	-2778
▁scene	-2779
▁track	-2780
▁effect	-2781
▁shower	-2782
▁united	-2783
ematosus	-2784
▁assault	-2785
▁however	-2786
▁whether	-2787
▁winning	-2788
▁breaking	-2789
▁greatest	-2790
▁character	-2791
▁fictional	-2792
▁california	-2793
erythematosus	-2794
01	-2795
kin	-2796
yan	-2797
▁id	-2798
▁ju	-2799
aser	-2800
ills	-2801
mber	-2802
ouis	-2803
pson	-2804
uary	-2805
▁Col	-2806
▁civ	-2807
▁haz	-2808
▁lie	-2809
▁oce	-2810
▁pil	-2811
▁sea	-2812
▁ult	-2813
etary	-2814
ments	-2815
stand	-2816
▁huff	-2817
▁icon	-2818
▁king	-2819
▁note	-2820
▁send	-2821
▁shut	-2822
▁site	-2823
iation	-2824
uesday	-2825
▁ahead	-2826
▁brown	-2827
▁cance	-2828
▁explo	-2829
▁horri	-2830
▁spice	-2831
▁cities	-2832
▁desire	-2833
▁disney	-2834
▁famous	-2835
▁obamas	-2836
▁potato	-2837
▁instead	-2838
▁network	-2839
character	-2840
▁employee	-2841
▁longtime	-2842
▁olympics	-2843
▁possibly	-2844
▁stranger	-2845
▁incredibly	-2846
nn	-2847
ago	-2848
bel	-2849
che	-2850
erv	-2851
iph	-2852
irt	-2853
ods	-2854
uri	-2855
cist	-2856
ffic	-2857
iler	-2858
lete	-2859
vert	-2860
▁911	-2861
▁bel	-2862
▁bow	-2863
▁cup	-2864
▁imm	-2865
▁nba	-2866
▁nut	-2867
▁saf	-2868
▁sky	-2869
Liber	-2870
board	-2871
bucks	-2872
chool	-2873
inary	-2874
ledge	-2875
value	-2876
▁khlo	-2877
▁lang	-2878
▁race	-2879
▁resc	-2880
▁risk	-2881
▁stay	-2882
▁tour	-2883
▁youd	-2884
worker	-2885
▁China	-2886
▁beyon	-2887
▁cheap	-2888
▁cheat	-2889
▁exact	-2890
▁foods	-2891
▁franc	-2892
▁moder	-2893
▁taste	-2894
▁trait	-2895
ologist	-2896
▁action	-2897
▁micros	-2898
▁monday	-2899
▁suffer	-2900
▁trying	-2901
▁wanted	-2902
▁erosion	-2903
▁keeping	-2904
▁totally	-2905
intendent	-2906
▁bathroom	-2907
▁champion	-2908
▁intellig	-2909
▁magazine	-2910
▁monetary	-2911
Liberation	-2912
▁challenge	-2913
▁starbucks	-2914
ministration	-2915
▁exploitation	-2916
▁superintendent	-2917
Rw	-2918
hip	-2919
iet	-2920
two	-2921
▁Or	-2922
aire	-2923
iana	-2924
iere	-2925
quot	-2926
▁Dis	-2927
▁amp	-2928
▁due	-2929
▁gal	-2930
▁map	-2931
campa	-2932
chand	-2933
ottom	-2934
▁bomb	-2935
▁burn	-2936
▁chap	-2937
▁east	-2938
▁lack	-2939
▁rout	-2940
▁seat	-2941
▁vers	-2942
Rwanda	-2943
▁North	-2944
▁civil	-2945
▁force	-2946
▁ghost	-2947
▁imper	-2948
▁judge	-2949
▁altern	-2950
▁compet	-2951
▁flight	-2952
▁sister	-2953
▁ticket	-2954
campaign	-2955
chandise	-2956
▁decided	-2957
▁justice	-2958
▁mystery	-2959
▁solution	-2960
▁straight	-2961
▁department	-2962
▁girlfriend	-2963
▁merchandise	-2964
bc	-2965
gbt	-2966
ias	-2967
pro	-2968
▁14	-2969
anch	-2970
osed	-2971
roid	-2972
uage	-2973
▁199	-2974
▁adv	-2975
▁ceo	-2976
▁foc	-2977
▁jam	-2978
▁oct	-2979
▁pin	-2980
▁pun	-2981
▁saw	-2982
▁ton	-2983
aring	-2984
icago	-2985
itive	-2986
orean	-2987
▁epic	-2988
▁flor	-2989
▁gifs	-2990
▁hope	-2991
▁spir	-2992
lliant	-2993
tember	-2994
▁alive	-2995
▁becom	-2996
▁guest	-2997
▁magic	-2998
▁staff	-2999
▁stick	-3000
▁teens	-3001
▁throw	-3002
▁trend	-3003
▁tried	-3004
▁Disney	-3005
▁charge	-3006
▁george	-3007
▁hazard	-3008
▁lesson	-3009
▁rapper	-3010
▁experts	-3011
▁killing	-3012
▁olympic	-3013
▁opening	-3014
▁outside	-3015
▁stories	-3016
▁survive	-3017
▁traffic	-3018
▁language	-3019
▁populace	-3020
▁position	-3021
▁brilliant	-3022
bru	-3023
emy	-3024
ush	-3025
vil	-3026
▁24	-3027
▁gw	-3028
▁pu	-3029
0000	-3030
ages	-3031
ptic	-3032
▁fra	-3033
▁ple	-3034
▁spl	-3035
ordan	-3036
▁Mary	-3037
▁bear	-3038
▁bell	-3039
▁busy	-3040
▁espn	-3041
▁jeff	-3042
▁nick	-3043
▁paid	-3044
▁step	-3045
▁stri	-3046
▁warn	-3047
cially	-3048
erence	-3049
▁James	-3050
▁chris	-3051
▁freak	-3052
▁galax	-3053
▁hasnt	-3054
▁kevin	-3055
▁peace	-3056
▁quick	-3057
▁turns	-3058
▁twins	-3059
▁weeks	-3060
▁worse	-3061
aturday	-3062
▁beyond	-3063
▁claims	-3064
▁comedy	-3065
▁descri	-3066
▁histor	-3067
▁listen	-3068
▁passen	-3069
▁spring	-3070
▁worker	-3071
▁british	-3072
▁francis	-3073
▁measure	-3074
▁plastic	-3075
▁players	-3076
▁receive	-3077
▁electric	-3078
▁possible	-3079
▁pregnancy	-3080
ett	-3081
ino	-3082
rid	-3083
lass	-3084
ourd	-3085
read	-3086
▁God	-3087
▁ach	-3088
▁cab	-3089
▁equ	-3090
▁gop	-3091
▁roy	-3092
achel	-3093
alist	-3094
andal	-3095
ersey	-3096
orate	-3097
▁bowl	-3098
▁coll	-3099
▁exce	-3100
▁excl	-3101
▁fash	-3102
▁feed	-3103
▁infl	-3104
▁leag	-3105
▁mult	-3106
▁rise	-3107
▁text	-3108
▁weap	-3109
▁adopt	-3110
▁extra	-3111
▁final	-3112
▁fresh	-3113
▁front	-3114
▁glass	-3115
▁tells	-3116
▁addict	-3117
▁doomed	-3118
▁friday	-3119
▁galaxy	-3120
▁nation	-3121
▁reddit	-3122
▁taking	-3123
mination	-3124
▁airline	-3125
▁digital	-3126
▁economy	-3127
▁orlando	-3128
▁request	-3129
▁veteran	-3130
▁arrested	-3131
▁princess	-3132
▁executive	-3133
▁transform	-3134
ca	-3135
do	-3136
gu	-3137
ux	-3138
ada	-3139
gue	-3140
lim	-3141
▁ol	-3142
aron	-3143
duce	-3144
four	-3145
rent	-3146
wide	-3147
▁Tom	-3148
▁jan	-3149
▁mal	-3150
▁mir	-3151
▁obv	-3152
▁rub	-3153
▁sad	-3154
abeth	-3155
ademy	-3156
akers	-3157
istic	-3158
loved	-3159
▁bond	-3160
▁chip	-3161
▁died	-3162
▁fish	-3163
▁hack	-3164
▁hold	-3165
▁luck	-3166
▁meme	-3167
▁meth	-3168
▁prec	-3169
▁quot	-3170
▁trip	-3171
ortion	-3172
ounder	-3173
▁allow	-3174
▁defin	-3175
▁hands	-3176
▁illeg	-3177
▁journ	-3178
▁named	-3179
▁ocean	-3180
▁oscar	-3181
▁price	-3182
▁radio	-3183
▁raise	-3184
▁round	-3185
▁bigger	-3186
▁butter	-3187
▁destro	-3188
▁dollar	-3189
▁island	-3190
▁modern	-3191
▁rumors	-3192
▁spouse	-3193
▁weapon	-3194
▁beloved	-3195
▁changed	-3196
▁exactly	-3197
▁impress	-3198
executive	-3199
▁Thursday	-3200
▁baseball	-3201
▁customer	-3202
▁thinking	-3203
fo	-3204
aps	-3205
boy	-3206
eel	-3207
ket	-3208
anks	-3209
anth	-3210
ants	-3211
ayer	-3212
bust	-3213
care	-3214
cast	-3215
elle	-3216
iams	-3217
pace	-3218
verb	-3219
▁daw	-3220
▁gas	-3221
▁ive	-3222
▁joe	-3223
▁tea	-3224
▁yes	-3225
acare	-3226
aptop	-3227
isely	-3228
itate	-3229
▁band	-3230
▁barb	-3231
▁bare	-3232
▁dark	-3233
▁fort	-3234
▁fuck	-3235
▁math	-3236
▁myth	-3237
▁scar	-3238
▁sour	-3239
ablish	-3240
▁behav	-3241
▁boost	-3242
▁flash	-3243
▁funny	-3244
▁orgas	-3245
▁owner	-3246
▁techn	-3247
▁third	-3248
▁tooth	-3249
▁users	-3250
▁write	-3251
aterial	-3252
▁barack	-3253
▁course	-3254
▁laptop	-3255
▁notice	-3256
▁posted	-3257
▁remark	-3258
▁senate	-3259
▁android	-3260
▁angeles	-3261
▁fashion	-3262
▁patient	-3263
▁project	-3264
▁serious	-3265
▁homeless	-3266
▁released	-3267
▁swimming	-3268
▁childhood	-3269
▁confirmed	-3270
▁entertain	-3271
▁obamacare	-3272
▁throughout	-3273
▁understand	-3274
erk	-3275
hib	-3276
ker	-3277
osh	-3278
▁32	-3279
▁Ac	-3280
born	-3281
cery	-3282
ears	-3283
fire	-3284
irty	-3285
post	-3286
▁198	-3287
▁Mon	-3288
▁gym	-3289
▁hig	-3290
▁vit	-3291
▁apps	-3292
▁buff	-3293
▁dick	-3294
▁grad	-3295
▁paul	-3296
▁poor	-3297
▁prop	-3298
▁sean	-3299
▁sell	-3300
▁soft	-3301
▁sold	-3302
ential	-3303
idence	-3304
uation	-3305
▁bloom	-3306
▁creep	-3307
▁facts	-3308
▁kanye	-3309
▁lower	-3310
▁smoke	-3311
izabeth	-3312
ketball	-3313
▁Christ	-3314
▁affect	-3315
▁bottom	-3316
▁europe	-3317
▁middle	-3318
▁recent	-3319
hibition	-3320
▁Orlando	-3321
▁attract	-3322
▁couples	-3323
▁current	-3324
▁feeling	-3325
▁fifteen	-3326
▁fitness	-3327
▁grocery	-3328
▁imagine	-3329
▁present	-3330
▁proverb	-3331
▁reports	-3332
▁routine	-3333
▁selling	-3334
▁seventy	-3335
▁California	-3336
▁percentage	-3337
▁investigation	-3338
erd	-3339
ilt	-3340
ken	-3341
oug	-3342
ria	-3343
▁ky	-3344
iday	-3345
king	-3346
orah	-3347
vard	-3348
wing	-3349
▁aud	-3350
▁cir	-3351
▁dom	-3352
▁dro	-3353
▁fel	-3354
▁lat	-3355
▁nas	-3356
▁sep	-3357
▁snl	-3358
▁squ	-3359
Award	-3360
Games	-3361
annel	-3362
esome	-3363
ondon	-3364
▁drum	-3365
▁hang	-3366
▁katy	-3367
▁mars	-3368
▁ones	-3369
▁slow	-3370
minute	-3371
phones	-3372
▁bourd	-3373
▁dirty	-3374
▁neigh	-3375
▁paper	-3376
▁probe	-3377
▁proof	-3378
▁spray	-3379
▁stars	-3380
udience	-3381
▁applic	-3382
▁bernie	-3383
▁havent	-3384
▁nightm	-3385
▁spirit	-3386
▁switch	-3387
▁victim	-3388
▁Academy	-3389
▁capture	-3390
▁channel	-3391
▁cryptic	-3392
▁general	-3393
▁holiday	-3394
▁medical	-3395
▁private	-3396
▁remains	-3397
▁shocked	-3398
▁lawrence	-3399
▁products	-3400
▁resident	-3401
▁conference	-3402
▁celebrities	-3403
▁alternatively	-3404
aii	-3405
ani	-3406
arc	-3407
tal	-3408
yrd	-3409
▁ef	-3410
isis	-3411
ival	-3412
loss	-3413
moon	-3414
oman	-3415
uses	-3416
▁bob	-3417
▁hun	-3418
▁lea	-3419
▁phr	-3420
▁unh	-3421
▁ver	-3422
antly	-3423
eight	-3424
ified	-3425
yneth	-3426
▁2015	-3427
▁alum	-3428
▁clot	-3429
▁hire	-3430
▁hous	-3431
▁mary	-3432
▁road	-3433
▁roll	-3434
▁sher	-3435
ership	-3436
people	-3437
▁achie	-3438
▁broad	-3439
▁calls	-3440
▁gener	-3441
▁gives	-3442
▁sales	-3443
▁serve	-3444
▁speed	-3445
iculous	-3446
oration	-3447
▁artist	-3448
▁demand	-3449
▁energy	-3450
▁escape	-3451
▁global	-3452
▁makeup	-3453
▁senior	-3454
fortable	-3455
▁climate	-3456
▁gwyneth	-3457
▁quality	-3458
ativeness	-3459
▁building	-3460
▁chilling	-3461
▁increase	-3462
▁reporter	-3463
▁shopping	-3464
▁terrible	-3465
▁establish	-3466
▁including	-3467
▁basketball	-3468
▁ridiculous	-3469
▁billionaire	-3470
▁intelligence	-3471
▁interruption	-3472
▁international	-3473
▁imperativeness	-3474
he	-3475
▁0	-3476
▁q	-3477
ari	-3478
aug	-3479
aul	-3480
aze	-3481
eat	-3482
key	-3483
lah	-3484
ohn	-3485
oph	-3486
pes	-3487
sec	-3488
ste	-3489
▁ut	-3490
anta	-3491
arty	-3492
bron	-3493
fact	-3494
rupt	-3495
wise	-3496
▁Car	-3497
▁Eur	-3498
▁ail	-3499
▁dia	-3500
▁fas	-3501
▁hed	-3502
▁jet	-3503
▁len	-3504
▁lim	-3505
▁pit	-3506
▁sym	-3507
▁tor	-3508
▁van	-3509
attoo	-3510
onest	-3511
▁brad	-3512
▁cere	-3513
▁cogn	-3514
▁coun	-3515
▁crow	-3516
▁dece	-3517
▁desp	-3518
▁emma	-3519
▁expl	-3520
▁felt	-3521
▁fest	-3522
▁flag	-3523
▁gain	-3524
▁jane	-3525
▁jobs	-3526
▁jump	-3527
▁lgbt	-3528
▁mans	-3529
▁near	-3530
▁prov	-3531
▁shot	-3532
▁susp	-3533
▁tech	-3534
▁todd	-3535
▁wish	-3536
▁bunch	-3537
▁china	-3538
▁clear	-3539
▁coach	-3540
▁issue	-3541
▁names	-3542
▁opens	-3543
▁pride	-3544
▁spent	-3545
▁style	-3546
▁sugar	-3547
▁wheel	-3548
▁whose	-3549
▁Monday	-3550
▁batman	-3551
▁batter	-3552
▁deadly	-3553
▁factor	-3554
▁growth	-3555
▁league	-3556
▁lebron	-3557
▁nights	-3558
▁sunday	-3559
▁tattoo	-3560
▁tomato	-3561
▁yester	-3562
breaking	-3563
▁accused	-3564
▁captain	-3565
▁hearing	-3566
▁herself	-3567
▁prevent	-3568
▁profile	-3569
▁publish	-3570
▁reality	-3571
▁scandal	-3572
▁sitting	-3573
▁subject	-3574
▁terrify	-3575
▁wouldnt	-3576
▁behavior	-3577
▁bourdain	-3578
▁breakage	-3579
▁consider	-3580
▁election	-3581
▁expected	-3582
▁pickings	-3583
▁politics	-3584
▁exclusive	-3585
▁facebooks	-3586
▁nightmare	-3587
▁precisely	-3588
▁questions	-3589
▁yesterday	-3590
50	-3591
bed	-3592
dis	-3593
fic	-3594
las	-3595
obe	-3596
ube	-3597
win	-3598
▁du	-3599
▁py	-3600
▁rh	-3601
bers	-3602
food	-3603
ican	-3604
ives	-3605
rect	-3606
ware	-3607
▁aff	-3608
▁arm	-3609
▁cnn	-3610
▁ios	-3611
▁pal	-3612
▁rap	-3613
▁rod	-3614
▁sav	-3615
▁unc	-3616
▁veh	-3617
ators	-3618
craft	-3619
minal	-3620
orrow	-3621
three	-3622
ugust	-3623
▁arch	-3624
▁init	-3625
▁iron	-3626
▁joke	-3627
▁kept	-3628
▁nasa	-3629
▁norm	-3630
▁pink	-3631
▁rain	-3632
▁tool	-3633
▁triv	-3634
▁wake	-3635
▁wash	-3636
▁xmen	-3637
lasses	-3638
umbers	-3639
▁david	-3640
▁decla	-3641
▁deter	-3642
▁knows	-3643
▁kylie	-3644
▁minim	-3645
▁penny	-3646
▁pilot	-3647
▁rival	-3648
▁river	-3649
▁smile	-3650
▁steal	-3651
busters	-3652
▁apples	-3653
▁attend	-3654
▁became	-3655
▁crisis	-3656
▁double	-3657
▁french	-3658
▁higher	-3659
▁method	-3660
▁multip	-3661
▁safety	-3662
▁supply	-3663
▁thatll	-3664
▁winter	-3665
▁auction	-3666
▁changes	-3667
▁checkup	-3668
▁destroy	-3669
▁illegal	-3670
▁inspire	-3671
▁lawsuit	-3672
▁respect	-3673
▁started	-3674
▁startup	-3675
▁vitamin	-3676
▁congress	-3677
▁premiere	-3678
▁sentence	-3679
▁suggests	-3680
▁tendency	-3681
▁thursday	-3682
▁associate	-3683
▁microsoft	-3684
▁necessitate	-3685
ks	-3686
mm	-3687
avy	-3688
but	-3689
han	-3690
ipp	-3691
iro	-3692
rap	-3693
uel	-3694
ule	-3695
won	-3696
▁70	-3697
abet	-3698
abis	-3699
bage	-3700
dden	-3701
free	-3702
here	-3703
icip	-3704
itor	-3705
ived	-3706
klah	-3707
pods	-3708
▁ble	-3709
▁bon	-3710
▁env	-3711
▁ham	-3712
▁tex	-3713
anned	-3714
antam	-3715
idden	-3716
ilton	-3717
ither	-3718
plane	-3719
riday	-3720
▁aged	-3721
▁anth	-3722
▁aven	-3723
▁blog	-3724
▁danc	-3725
▁door	-3726
▁dump	-3727
▁fear	-3728
▁firm	-3729
▁kong	-3730
▁lets	-3731
▁mort	-3732
▁push	-3733
▁rush	-3734
▁spec	-3735
▁stru	-3736
ormous	-3737
others	-3738
▁brush	-3739
▁enter	-3740
▁floor	-3741
▁given	-3742
▁helps	-3743
▁invol	-3744
▁negot	-3745
▁novel	-3746
▁print	-3747
▁score	-3748
▁seems	-3749
▁sixty	-3750
▁spect	-3751
▁supre	-3752
▁touch	-3753
▁veget	-3754
ography	-3755
▁Europe	-3756
▁bantam	-3757
▁bridge	-3758
▁cancel	-3759
▁caught	-3760
▁eighty	-3761
▁gender	-3762
▁ground	-3763
▁honest	-3764
▁iconic	-3765
▁invent	-3766
▁missed	-3767
▁proper	-3768
▁racist	-3769
▁studio	-3770
▁sudden	-3771
▁anymore	-3772
▁awesome	-3773
▁concern	-3774
▁haircut	-3775
▁highest	-3776
▁reading	-3777
▁version	-3778
▁william	-3779
ustralian	-3780
▁airplane	-3781
▁carolina	-3782
▁clothing	-3783
▁consumer	-3784
▁enormous	-3785
▁evidence	-3786
▁christmas	-3787
▁seventeen	-3788
▁terrorist	-3789
▁appearance	-3790
ev	-3791
ey	-3792
aga	-3793
arm	-3794
aya	-3795
hio	-3796
itz	-3797
ola	-3798
sel	-3799
▁jj	-3800
aged	-3801
ania	-3802
aran	-3803
etch	-3804
iced	-3805
iffe	-3806
itiz	-3807
nine	-3808
oloc	-3809
osis	-3810
rais	-3811
wart	-3812
▁New	-3813
▁Ste	-3814
▁Sun	-3815
▁bbc	-3816
▁beg	-3817
▁cos	-3818
▁emo	-3819
▁haw	-3820
▁jul	-3821
▁lin	-3822
▁lyn	-3823
▁mas	-3824
▁rev	-3825
▁und	-3826
▁unw	-3827
▁wil	-3828
▁yog	-3829
iling	-3830
oring	-3831
osaur	-3832
ourne	-3833
ronic	-3834
▁appe	-3835
▁arri	-3836
▁atro	-3837
▁doll	-3838
▁neon	-3839
▁pump	-3840
▁ryan	-3841
▁sick	-3842
▁stan	-3843
▁sung	-3844
▁webs	-3845
cliffe	-3846
gender	-3847
▁Holoc	-3848
▁above	-3849
▁carry	-3850
▁crash	-3851
▁exist	-3852
▁extre	-3853
▁femin	-3854
▁finan	-3855
▁fraud	-3856
▁lifes	-3857
▁mayor	-3858
▁metro	-3859
▁signs	-3860
▁taken	-3861
▁trust	-3862
olution	-3863
▁Sunday	-3864
▁accept	-3865
▁camera	-3866
▁collar	-3867
▁crying	-3868
▁daniel	-3869
▁decade	-3870
▁habits	-3871
▁highly	-3872
▁impact	-3873
▁injury	-3874
▁itself	-3875
▁punish	-3876
▁refuse	-3877
▁rescue	-3878
▁russia	-3879
▁undert	-3880
ological	-3881
▁Godhead	-3882
▁brother	-3883
▁cameron	-3884
▁causing	-3885
▁heading	-3886
▁housing	-3887
▁johnson	-3888
▁learned	-3889
▁leaving	-3890
▁observe	-3891
▁quarter	-3892
▁stephen	-3893
▁Holocene	-3894
▁Michigan	-3895
▁headline	-3896
▁standing	-3897
▁candidate	-3898
▁countries	-3899
▁everybody	-3900
▁legendary	-3901
▁radcliffe	-3902
▁surprised	-3903
▁technical	-3904
▁tradition	-3905
▁collection	-3906
▁everywhere	-3907
▁particular	-3908
▁sunglasses	-3909
▁interesting	-3910
▁transgender	-3911
Ad	-3912
ha	-3913
ox	-3914
tr	-3915
ano	-3916
eer	-3917
fer	-3918
ila	-3919
iot	-3920
isl	-3921
oms	-3922
pir	-3923
uce	-3924
▁26	-3925
▁Le	-3926
▁om	-3927
▁ps	-3928
▁ti	-3929
anny	-3930
cott	-3931
erve	-3932
ites	-3933
mend	-3934
oint	-3935
over	-3936
rage	-3937
▁ari	-3938
▁fal	-3939
▁hop	-3940
▁inn	-3941
▁jen	-3942
▁kam	-3943
▁nug	-3944
▁nyc	-3945
▁rio	-3946
▁wal	-3947
▁wit	-3948
cient	-3949
ening	-3950
icide	-3951
stick	-3952
▁John	-3953
▁crew	-3954
▁hook	-3955
▁lord	-3956
▁main	-3957
▁moon	-3958
▁narc	-3959
▁oper	-3960
▁pack	-3961
▁suit	-3962
▁thor	-3963
▁tiny	-3964
▁zend	-3965
alling	-3966
cience	-3967
ension	-3968
▁brief	-3969
▁chain	-3970
▁cross	-3971
▁debut	-3972
▁gramm	-3973
▁knock	-3974
▁mexic	-3975
▁needs	-3976
▁organ	-3977
▁paint	-3978
▁royal	-3979
▁scary	-3980
▁total	-3981
▁value	-3982
agement	-3983
duction	-3984
station	-3985
▁annual	-3986
▁clickb	-3987
▁creepy	-3988
▁critic	-3989
▁forest	-3990
▁hidden	-3991
▁legisl	-3992
▁letter	-3993
▁option	-3994
▁phrase	-3995
▁rather	-3996
▁recipe	-3997
▁reduce	-3998
▁retail	-3999
▁selfie	-4000
▁source	-4001
▁spread	-4002
▁airpods	-4003
▁athlete	-4004
▁carrier	-4005
▁console	-4006
▁illness	-4007
▁improve	-4008
▁narciss	-4009
▁reunite	-4010
▁supreme	-4011
▁cannabis	-4012
▁disorder	-4013
▁material	-4014
▁reaction	-4015
▁spending	-4016
▁suddenly	-4017
▁disappear	-4018
▁homecoming	-4019
▁previously	-4020
▁smartphone	-4021
▁playstation	-4022
▁undertaking	-4023
Administration	-4024
ki	-4025
ob	-4026
aks	-4027
azi	-4028
eme	-4029
igr	-4030
iri	-4031
lyn	-4032
nth	-4033
ras	-4034
wer	-4035
▁23	-4036
▁35	-4037
▁40	-4038
▁50	-4039
airs	-4040
cies	-4041
etts	-4042
girl	-4043
last	-4044
list	-4045
rick	-4046
ured	-4047
▁Ant	-4048
▁bay	-4049
▁bud	-4050
▁gap	-4051
▁hal	-4052
▁lon	-4053
▁mov	-4054
▁non	-4055
▁tal	-4056
▁ted	-4057
▁yah	-4058
aware	-4059
iting	-4060
ville	-4061
▁Mars	-4062
▁Wyrd	-4063
▁agre	-4064
▁anti	-4065
▁bite	-4066
▁gone	-4067
▁hill	-4068
▁knew	-4069
▁lock	-4070
▁mast	-4071
▁matt	-4072
▁prog	-4073
▁quiz	-4074
▁rate	-4075
▁seek	-4076
▁slam	-4077
▁tips	-4078
▁tree	-4079
ession	-4080
ighter	-4081
rition	-4082
▁David	-4083
▁adele	-4084
▁anton	-4085
▁belly	-4086
▁blame	-4087
▁board	-4088
▁panic	-4089
▁proud	-4090
▁stall	-4091
winning	-4092
▁athlet	-4093
▁bachel	-4094
▁compan	-4095
▁eleven	-4096
▁garlic	-4097
▁humans	-4098
▁master	-4099
▁moving	-4100
▁saving	-4101
▁toward	-4102
▁ailment	-4103
▁dancing	-4104
▁discuss	-4105
▁driving	-4106
▁garbage	-4107
▁growing	-4108
▁obvious	-4109
▁process	-4110
▁smoking	-4111
▁trailer	-4112
▁villain	-4113
▁complain	-4114
▁continue	-4115
▁incident	-4116
▁allegedly	-4117
▁employees	-4118
▁francisco	-4119
▁interrupt	-4120
▁attractive	-4121
▁convention	-4122
▁originally	-4123
▁pornography	-4124
▁prohibition	-4125
fc	-4126
201	-4127
ama	-4128
bes	-4129
dam	-4130
des	-4131
dri	-4132
els	-4133
fly	-4134
gic	-4135
ini	-4136
mes	-4137
tee	-4138
tte	-4139
war	-4140
▁22	-4141
▁42	-4142
▁80	-4143
▁Be	-4144
▁iv	-4145
▁ja	-4146
apan	-4147
dler	-4148
fits	-4149
half	-4150
know	-4151
ored	-4152
rams	-4153
term	-4154
▁Eng	-4155
▁Har	-4156
▁amy	-4157
▁anx	-4158
▁lad	-4159
▁lip	-4160
▁mos	-4161
▁ord	-4162
▁pul	-4163
▁spo	-4164
▁tag	-4165
▁tes	-4166
adian	-4167
ament	-4168
ample	-4169
ances	-4170
anted	-4171
gency	-4172
inity	-4173
ivery	-4174
liest	-4175
ntern	-4176
owing	-4177
uable	-4178
▁anna	-4179
▁bird	-4180
▁cars	-4181
▁educ	-4182
▁eigh	-4183
▁grab	-4184
▁homo	-4185
▁meal	-4186
▁pine	-4187
▁serv	-4188
▁surf	-4189
▁yout	-4190
altrow	-4191
atform	-4192
▁agree	-4193
▁awful	-4194
▁betty	-4195
▁cream	-4196
▁crowd	-4197
▁louis	-4198
▁maybe	-4199
▁medic	-4200
▁older	-4201
▁paral	-4202
▁pitch	-4203
▁plans	-4204
▁rates	-4205
▁sight	-4206
▁steam	-4207
▁treat	-4208
▁wrote	-4209
acteria	-4210
closure	-4211
▁Daniel	-4212
▁assist	-4213
▁banned	-4214
▁cheese	-4215
▁fellow	-4216
▁justin	-4217
▁linger	-4218
▁linked	-4219
▁pounds	-4220
▁reject	-4221
▁shares	-4222
▁status	-4223
▁teaser	-4224
▁battery	-4225
▁chicago	-4226
▁conserv	-4227
▁contest	-4228
▁finance	-4229
▁florida	-4230
▁rodgers	-4231
▁sanders	-4232
▁several	-4233
▁suspect	-4234
▁tonight	-4235
▁workers	-4236
▁writing	-4237
▁abortion	-4238
▁audience	-4239
▁bacteria	-4240
▁changing	-4241
▁coverage	-4242
▁delivery	-4243
▁fastfood	-4244
▁huffpost	-4245
▁interior	-4246
▁responds	-4247
▁thirteen	-4248
▁happening	-4249
▁thousands	-4250
▁democratic	-4251
nternational	-4252
▁controversial	-4253
gi	-4254
asp	-4255
bie	-4256
isf	-4257
lot	-4258
mel	-4259
oty	-4260
ude	-4261
uff	-4262
ups	-4263
▁ka	-4264
affe	-4265
bond	-4266
ging	-4267
ners	-4268
uter	-4269
▁Del	-4270
▁Dem	-4271
▁Law	-4272
▁Sep	-4273
▁cbs	-4274
▁fed	-4275
▁gta	-4276
▁hem	-4277
▁log	-4278
▁mac	-4279
allas	-4280
aming	-4281
erman	-4282
etime	-4283
iance	-4284
ivers	-4285
ocrat	-4286
sales	-4287
store	-4288
verse	-4289
▁corn	-4290
▁dies	-4291
▁emoj	-4292
▁emot	-4293
▁guys	-4294
▁lear	-4295
▁phil	-4296
▁pour	-4297
▁pupp	-4298
▁rick	-4299
▁sams	-4300
▁sexy	-4301
▁trek	-4302
▁wine	-4303
▁youn	-4304
bruary	-4305
porate	-4306
sander	-4307
▁along	-4308
▁angry	-4309
▁blunt	-4310
▁citiz	-4311
▁comic	-4312
▁crack	-4313
▁field	-4314
▁krist	-4315
▁liter	-4316
▁ninet	-4317
▁patri	-4318
▁sauce	-4319
hundred	-4320
▁breaks	-4321
▁calcul	-4322
▁closer	-4323
▁easily	-4324
▁finger	-4325
▁heroin	-4326
▁hiddle	-4327
▁losing	-4328
▁metall	-4329
▁movies	-4330
▁myster	-4331
▁object	-4332
▁orgasm	-4333
▁places	-4334
▁review	-4335
▁satisf	-4336
▁scheme	-4337
alloween	-4338
▁ancient	-4339
▁brought	-4340
▁charity	-4341
▁costume	-4342
▁extreme	-4343
▁foreign	-4344
▁helping	-4345
▁insider	-4346
▁passion	-4347
▁peoples	-4348
▁quickly	-4349
▁schools	-4350
▁simpson	-4351
▁tuesday	-4352
▁weather	-4353
▁Carolina	-4354
▁Democrat	-4355
▁Lawrence	-4356
▁dinosaur	-4357
▁mathemat	-4358
▁stallion	-4359
▁stunning	-4360
▁watching	-4361
▁September	-4362
▁abandoned	-4363
▁highlight	-4364
▁investing	-4365
▁knowledge	-4366
▁passenger	-4367
▁wednesday	-4368
da	-4369
hi	-4370
jo	-4371
500	-4372
bos	-4373
col	-4374
gth	-4375
ids	-4376
ips	-4377
lax	-4378
lla	-4379
omy	-4380
tra	-4381
ued	-4382
urt	-4383
▁29	-4384
▁Ro	-4385
▁ye	-4386
hann	-4387
irst	-4388
izes	-4389
mart	-4390
neys	-4391
ogue	-4392
ried	-4393
▁Wed	-4394
▁bal	-4395
▁bul	-4396
▁cas	-4397
▁cof	-4398
▁dar	-4399
▁fro	-4400
▁gig	-4401
▁god	-4402
▁hik	-4403
▁jay	-4404
▁lux	-4405
▁oil	-4406
▁sel	-4407
▁sod	-4408
▁wat	-4409
agers	-4410
ences	-4411
ginia	-4412
ician	-4413
inese	-4414
known	-4415
pless	-4416
umbia	-4417
waste	-4418
▁2000	-4419
▁2012	-4420
▁bump	-4421
▁comb	-4422
▁cruz	-4423
▁fair	-4424
▁gard	-4425
▁geor	-4426
▁hbos	-4427
▁jail	-4428
▁jean	-4429
▁legs	-4430
▁marc	-4431
▁milk	-4432
▁moto	-4433
▁onto	-4434
▁pair	-4435
▁prep	-4436
▁rent	-4437
▁ruin	-4438
▁spin	-4439
▁unlo	-4440
acters	-4441
ermine	-4442
piracy	-4443
school	-4444
▁below	-4445
▁blues	-4446
▁craig	-4447
▁fifth	-4448
▁focus	-4449
▁indie	-4450
▁influ	-4451
▁jason	-4452
▁kerry	-4453
▁khloe	-4454
▁labor	-4455
▁laugh	-4456
▁loves	-4457
▁march	-4458
▁pasta	-4459
▁pract	-4460
▁relax	-4461
▁relie	-4462
▁shift	-4463
▁skill	-4464
▁talks	-4465
▁troll	-4466
▁weigh	-4467
▁barist	-4468
▁breath	-4469
▁campus	-4470
▁cruise	-4471
▁engine	-4472
▁indian	-4473
▁memory	-4474
▁passed	-4475
▁paying	-4476
▁please	-4477
▁propos	-4478
▁remove	-4479
▁rihann	-4480
▁strate	-4481
▁womans	-4482
designer	-4483
disorder	-4484
▁bedroom	-4485
▁calling	-4486
▁charlie	-4487
▁collect	-4488
▁dawdler	-4489
▁drivers	-4490
▁edition	-4491
▁fallout	-4492
▁forever	-4493
▁musical	-4494
▁nintend	-4495
▁running	-4496
▁sharing	-4497
▁website	-4498
▁Saturday	-4499
▁comedian	-4500
▁creative	-4501
▁economic	-4502
▁fighting	-4503
▁identify	-4504
▁identity	-4505
▁insanely	-4506
▁learning	-4507
▁lipstick	-4508
▁millions	-4509
▁neighbor	-4510
▁original	-4511
▁received	-4512
▁secretly	-4513
▁violence	-4514
▁Wednesday	-4515
▁clickbait	-4516
▁cofounder	-4517
▁determine	-4518
▁invention	-4519
▁otherwise	-4520
▁characters	-4521
▁conspiracy	-4522
▁depression	-4523
▁terrifying	-4524
▁controversy	-4525
▁development	-4526
▁conservative	-4527
▁particularly	-4528
13	-4529
cé	-4530
yd	-4531
edy	-4532
ita	-4533
nbs	-4534
ora	-4535
pad	-4536
run	-4537
ula	-4538
umn	-4539
xim	-4540
yer	-4541
▁31	-4542
▁Sp	-4543
▁na	-4544
ened	-4545
icom	-4546
ilty	-4547
iron	-4548
llen	-4549
orie	-4550
poss	-4551
site	-4552
star	-4553
umpt	-4554
ural	-4555
▁Jay	-4556
▁Sim	-4557
▁ale	-4558
▁ash	-4559
▁bry	-4560
▁eld	-4561
▁enc	-4562
▁fab	-4563
▁hbo	-4564
▁lam	-4565
▁les	-4566
▁rip	-4567
▁sne	-4568
▁teb	-4569
▁uns	-4570
aster	-4571
enced	-4572
flict	-4573
house	-4574
inate	-4575
ingle	-4576
onoun	-4577
opath	-4578
style	-4579
▁aint	-4580
▁amid	-4581
▁born	-4582
▁boss	-4583
▁cats	-4584
▁cell	-4585
▁chop	-4586
▁coin	-4587
▁cops	-4588
▁crap	-4589
▁dism	-4590
▁drew	-4591
▁hall	-4592
▁ipad	-4593
▁lake	-4594
▁leaf	-4595
▁merc	-4596
▁remo	-4597
▁thri	-4598
▁wide	-4599
ocious	-4600
raisal	-4601
urance	-4602
urious	-4603
▁Oklah	-4604
▁activ	-4605
▁aware	-4606
▁banks	-4607
▁cater	-4608
▁cloud	-4609
▁drugs	-4610
▁empty	-4611
▁fruit	-4612
▁honey	-4613
▁jeans	-4614
▁jimmy	-4615
▁level	-4616
▁paris	-4617
▁polic	-4618
▁purch	-4619
▁refer	-4620
▁rogue	-4621
▁stray	-4622
▁trees	-4623
▁truck	-4624
▁unlim	-4625
▁yahoo	-4626
alfloss	-4627
fighter	-4628
ulation	-4629
▁abrams	-4630
▁ending	-4631
▁fiscal	-4632
▁franch	-4633
▁helped	-4634
▁imposs	-4635
▁jordan	-4636
▁leaves	-4637
▁ninety	-4638
▁pocket	-4639
▁purple	-4640
▁remain	-4641
▁wealth	-4642
ifically	-4643
ironment	-4644
iversity	-4645
reaction	-4646
▁Johnson	-4647
▁comment	-4648
▁constru	-4649
▁correct	-4650
▁despite	-4651
▁fiction	-4652
▁funeral	-4653
▁monster	-4654
▁premium	-4655
▁program	-4656
▁sheriff	-4657
▁species	-4658
iculation	-4659
▁describe	-4660
▁features	-4661
▁majority	-4662
▁musician	-4663
▁pathetic	-4664
▁reported	-4665
▁republic	-4666
▁tomorrow	-4667
alflosscom	-4668
▁announces	-4669
▁emergency	-4670
▁nutrition	-4671
▁predicted	-4672
▁unlimited	-4673
▁vegetable	-4674
▁disturbing	-4675
▁impossible	-4676
▁journalist	-4677
▁scientific	-4678
▁environment	-4679
▁ghostbusters	-4680
▁mentalflosscom	-4681
li	-4682
nc	-4683
za	-4684
Aer	-4685
acc	-4686
bon	-4687
cil	-4688
ico	-4689
kes	-4690
oma	-4691
pet	-4692
rav	-4693
raz	-4694
rib	-4695
unk	-4696
▁ox	-4697
adow	-4698
aked	-4699
anic	-4700
ayas	-4701
bell	-4702
bris	-4703
fast	-4704
hero	-4705
lett	-4706
ndia	-4707
onto	-4708
otle	-4709
quar	-4710
rina	-4711
rink	-4712
rome	-4713
urch	-4714
wash	-4715
wich	-4716
▁Haw	-4717
▁ali	-4718
▁ber	-4719
▁diy	-4720
▁dow	-4721
▁hid	-4722
▁hog	-4723
▁hon	-4724
▁ign	-4725
▁jaw	-4726
▁ker	-4727
▁nat	-4728
▁nic	-4729
▁por	-4730
▁sia	-4731
▁tem	-4732
Aeron	-4733
Space	-4734
arnel	-4735
belie	-4736
elect	-4737
iliar	-4738
itely	-4739
maker	-4740
omach	-4741
rated	-4742
rogen	-4743
ufact	-4744
ymine	-4745
▁1000	-4746
▁bang	-4747
▁evil	-4748
▁flaw	-4749
▁golf	-4750
▁hong	-4751
▁mand	-4752
▁pers	-4753
▁quit	-4754
▁rand	-4755
▁sees	-4756
▁volt	-4757
▁ward	-4758
▁wing	-4759
▁wood	-4760
▁yoga	-4761
autics	-4762
isters	-4763
ommend	-4764
rymore	-4765
selves	-4766
sworth	-4767
▁admit	-4768
▁blast	-4769
▁blizz	-4770
▁clang	-4771
▁dance	-4772
▁diagn	-4773
▁exper	-4774
▁grace	-4775
▁graph	-4776
▁guard	-4777
▁inaug	-4778
▁jamie	-4779
▁johan	-4780
▁keeps	-4781
▁khloé	-4782
▁pyram	-4783
▁recru	-4784
▁toxic	-4785
▁voter	-4786
▁waste	-4787
▁worry	-4788
▁asleep	-4789
▁darnel	-4790
▁debris	-4791
▁desper	-4792
▁editor	-4793
▁estate	-4794
▁excell	-4795
▁facing	-4796
▁kickst	-4797
▁looked	-4798
▁luxury	-4799
▁mental	-4800
▁newest	-4801
▁pepper	-4802
▁played	-4803
▁shared	-4804
▁signal	-4805
▁steven	-4806
▁womens	-4807
iversary	-4808
pecially	-4809
ustralia	-4810
▁Stephen	-4811
▁Tuesday	-4812
▁anticip	-4813
▁becomes	-4814
▁colbert	-4815
▁concert	-4816
▁confess	-4817
▁cooking	-4818
▁dropped	-4819
▁failure	-4820
▁filming	-4821
▁intense	-4822
▁noticed	-4823
▁paltrow	-4824
▁pumpkin	-4825
▁purpose	-4826
▁ranking	-4827
▁richard	-4828
▁samsung	-4829
▁stomach	-4830
▁suicide	-4831
▁swallow	-4832
▁telling	-4833
▁thymine	-4834
▁vehicle	-4835
▁witness	-4836
lastingly	-4837
▁National	-4838
▁activity	-4839
▁chipotle	-4840
▁familiar	-4841
▁humanity	-4842
▁nineteen	-4843
▁pressure	-4844
▁sandwich	-4845
▁services	-4846
▁signific	-4847
▁unwanted	-4848
▁basically	-4849
▁breakfast	-4850
▁childrens	-4851
▁customers	-4852
▁democrats	-4853
▁hemsworth	-4854
▁perfectly	-4855
▁recognize	-4856
▁recommend	-4857
▁worldwide	-4858
Aeronautics	-4859
▁difference	-4860
▁disclosure	-4861
▁experiment	-4862
▁healthcare	-4863
▁comfortable	-4864
▁congressman	-4865
▁observation	-4866
▁recognition	-4867
▁articulation	-4868
▁entertainment	-4869
▁everlastingly	-4870
bi	-4871
lv	-4872
pa	-4873
eal	-4874
ela	-4875
eny	-4876
gia	-4877
joy	-4878
lat	-4879
uty	-4880
▁27	-4881
▁60	-4882
▁90	-4883
▁El	-4884
▁eu	-4885
▁oj	-4886
cons	-4887
esus	-4888
gies	-4889
iami	-4890
inas	-4891
inds	-4892
inee	-4893
inem	-4894
ints	-4895
itar	-4896
onym	-4897
rael	-4898
raid	-4899
rian	-4900
ucky	-4901
unic	-4902
ysis	-4903
▁Can	-4904
▁Mex	-4905
▁bie	-4906
▁clo	-4907
▁coc	-4908
▁fle	-4909
▁gor	-4910
▁hyd	-4911
▁mix	-4912
▁nor	-4913
▁odd	-4914
▁ped	-4915
▁sam	-4916
▁vin	-4917
amous	-4918
astro	-4919
defic	-4920
ierce	-4921
izing	-4922
layer	-4923
lotte	-4924
ppers	-4925
right	-4926
story	-4927
table	-4928
▁Grey	-4929
▁alth	-4930
▁arab	-4931
▁cave	-4932
▁craw	-4933
▁daze	-4934
▁desk	-4935
▁drun	-4936
▁file	-4937
▁forg	-4938
▁hood	-4939
▁nbcs	-4940
▁neil	-4941
▁pope	-4942
▁rose	-4943
▁trap	-4944
▁unve	-4945
▁upon	-4946
Jersey	-4947
arrass	-4948
ending	-4949
ington	-4950
lorida	-4951
orters	-4952
▁Banks	-4953
▁Begin	-4954
▁Louis	-4955
▁advis	-4956
▁autom	-4957
▁babys	-4958
▁cyrus	-4959
▁ditch	-4960
▁domin	-4961
▁downt	-4962
▁funds	-4963
▁hacks	-4964
▁heter	-4965
▁impro	-4966
▁juice	-4967
▁kelly	-4968
▁laure	-4969
▁perce	-4970
▁peter	-4971
▁phase	-4972
▁puppy	-4973
▁reapp	-4974
▁relig	-4975
▁reven	-4976
▁solve	-4977
▁split	-4978
▁spoke	-4979
▁spoon	-4980
▁swing	-4981
▁texas	-4982
▁tough	-4983
▁works	-4984
deficit	-4985
▁Antony	-4986
▁afraid	-4987
▁amount	-4988
▁bought	-4989
▁credit	-4990
▁dunham	-4991
▁facial	-4992
▁fisher	-4993
▁jersey	-4994
▁london	-4995
▁remake	-4996
▁skinny	-4997
▁sounds	-4998
▁strang	-4999
▁strugg	-5000
▁theyve	-5001
▁tragic	-5002
▁unlike	-5003
▁anthony	-5004
▁closing	-5005
▁declare	-5006
▁devices	-5007
▁fastest	-5008
▁finding	-5009
▁grandma	-5010
▁iphones	-5011
▁largest	-5012
▁nowhere	-5013
▁promise	-5014
▁pronoun	-5015
▁putting	-5016
▁surface	-5017
▁univers	-5018
▁although	-5019
▁becoming	-5020
▁conflict	-5021
▁endanger	-5022
▁everyday	-5023
▁horrible	-5024
▁location	-5025
▁michigan	-5026
▁painting	-5027
▁previous	-5028
▁shutting	-5029
▁williams	-5030
University	-5031
▁atrocious	-5032
▁companies	-5033
▁daughters	-5034
▁desperate	-5035
▁direction	-5036
▁elizabeth	-5037
▁embarrass	-5038
▁franchise	-5039
▁statement	-5040
▁wondering	-5041
▁definitely	-5042
▁disappoint	-5043
▁electronic	-5044
▁foundation	-5045
▁hiddleston	-5046
▁kardashians	-5047
▁multiplayer	-5048
▁negotiation	-5049
▁quarterback	-5050
▁reappraisal	-5051
▁heterosexual	-5052
tl	-5053
cup	-5054
dog	-5055
hen	-5056
ito	-5057
lau	-5058
nam	-5059
oly	-5060
ona	-5061
ops	-5062
oul	-5063
rot	-5064
uge	-5065
ugg	-5066
you	-5067
zer	-5068
▁Br	-5069
▁ak	-5070
▁ax	-5071
▁ge	-5072
▁mr	-5073
▁ug	-5074
Jane	-5075
alia	-5076
anut	-5077
arct	-5078
cism	-5079
club	-5080
eman	-5081
ents	-5082
ette	-5083
gets	-5084
giar	-5085
greg	-5086
hole	-5087
ieth	-5088
iety	-5089
iner	-5090
inue	-5091
laim	-5092
made	-5093
outs	-5094
play	-5095
rari	-5096
road	-5097
robe	-5098
roit	-5099
wear	-5100
yrus	-5101
▁800	-5102
▁Rio	-5103
▁Sov	-5104
▁Tex	-5105
▁bol	-5106
▁dnc	-5107
▁doz	-5108
▁kar	-5109
▁led	-5110
▁nur	-5111
▁omg	-5112
▁pik	-5113
▁sty	-5114
▁tay	-5115
Union	-5116
adium	-5117
alism	-5118
aries	-5119
arily	-5120
bling	-5121
books	-5122
chine	-5123
eding	-5124
ended	-5125
inder	-5126
orado	-5127
orous	-5128
round	-5129
shell	-5130
ulous	-5131
▁Adam	-5132
▁Ohio	-5133
▁Will	-5134
▁appl	-5135
▁beth	-5136
▁bise	-5137
▁boot	-5138
▁brut	-5139
▁conv	-5140
▁cosm	-5141
▁draw	-5142
▁eyel	-5143
▁goog	-5144
▁gymn	-5145
▁hike	-5146
▁inqu	-5147
▁marg	-5148
▁meat	-5149
▁neck	-5150
▁rach	-5151
▁rape	-5152
▁sach	-5153
▁scen	-5154
▁sons	-5155
▁sort	-5156
▁soup	-5157
▁wins	-5158
abetes	-5159
believ	-5160
cedure	-5161
fortun	-5162
icomph	-5163
iction	-5164
ouglas	-5165
▁Sweet	-5166
▁aaron	-5167
▁analy	-5168
▁anist	-5169
▁appre	-5170
▁based	-5171
▁basic	-5172
▁block	-5173
▁brook	-5174
▁built	-5175
▁cabin	-5176
▁cases	-5177
▁chink	-5178
▁clasp	-5179
▁clock	-5180
▁conte	-5181
▁email	-5182
▁europ	-5183
▁films	-5184
▁hates	-5185
▁larry	-5186
▁lines	-5187
▁motiv	-5188
▁perry	-5189
▁plane	-5190
▁prize	-5191
▁reall	-5192
▁rubio	-5193
▁saved	-5194
▁smell	-5195
▁stone	-5196
▁stuff	-5197
▁sympt	-5198
▁table	-5199
▁tesla	-5200
▁yours	-5201
Janeiro	-5202
calling	-5203
istrict	-5204
ontinue	-5205
▁Jordan	-5206
▁Soviet	-5207
▁access	-5208
▁acting	-5209
▁actual	-5210
▁afford	-5211
▁belief	-5212
▁chance	-5213
▁commit	-5214
▁compar	-5215
▁damage	-5216
▁devast	-5217
▁effort	-5218
▁endors	-5219
▁guaran	-5220
▁handle	-5221
▁inmate	-5222
▁leader	-5223
▁minute	-5224
▁peanut	-5225
▁prefer	-5226
▁rights	-5227
▁rocket	-5228
▁savage	-5229
▁splash	-5230
▁starts	-5231
▁surely	-5232
▁unique	-5233
▁waiter	-5234
entially	-5235
ordinary	-5236
▁achieve	-5237
▁allowed	-5238
▁anxiety	-5239
▁blogger	-5240
▁capital	-5241
▁complex	-5242
▁culture	-5243
▁decline	-5244
▁english	-5245
▁footage	-5246
▁johanss	-5247
▁letters	-5248
▁longest	-5249
▁machine	-5250
▁mention	-5251
▁officer	-5252
▁partner	-5253
▁plagiar	-5254
▁portray	-5255
▁recruit	-5256
▁refused	-5257
▁retired	-5258
▁rowling	-5259
▁seconds	-5260
▁silence	-5261
▁similar	-5262
▁soldier	-5263
▁stadium	-5264
▁topless	-5265
▁unknown	-5266
▁victory	-5267
▁younger	-5268
▁youtube	-5269
▁zendaya	-5270
▁Colorado	-5271
▁bisexual	-5272
▁blizzard	-5273
▁calories	-5274
▁cleaning	-5275
▁designer	-5276
▁diabetes	-5277
▁division	-5278
▁engineer	-5279
▁flatness	-5280
▁fourteen	-5281
▁friendly	-5282
▁manufact	-5283
▁medicine	-5284
▁michelle	-5285
▁mistakes	-5286
▁nickname	-5287
▁scarlett	-5288
▁sleeping	-5289
▁standard	-5290
▁unbeliev	-5291
▁unfortun	-5292
▁valuable	-5293
▁wardrobe	-5294
▁apartment	-5295
▁assistant	-5296
▁authority	-5297
▁cognition	-5298
▁excellent	-5299
▁extremely	-5300
▁financial	-5301
▁insurance	-5302
▁kamicomph	-5303
▁potential	-5304
▁procedure	-5305
▁published	-5306
▁responded	-5307
▁situation	-5308
▁transport	-5309
▁especially	-5310
▁nomination	-5311
▁themselves	-5312
▁competition	-5313
▁discontinue	-5314
▁introduction	-5315
▁organization	-5316
▁determination	-5317
▁extraordinary	-5318
▁heartbreaking	-5319
▁presidentelect	-5320
oe	-5321
sp	-5322
tt	-5323
ua	-5324
adi	-5325
bid	-5326
bur	-5327
ets	-5328
iod	-5329
ipe	-5330
pal	-5331
sis	-5332
▁Re	-5333
▁ea	-5334
▁iq	-5335
▁ko	-5336
▁ly	-5337
arah	-5338
bbit	-5339
bing	-5340
chan	-5341
dits	-5342
esse	-5343
idel	-5344
inch	-5345
inum	-5346
itis	-5347
kins	-5348
lers	-5349
lest	-5350
lled	-5351
lson	-5352
omez	-5353
ooth	-5354
orse	-5355
rate	-5356
rial	-5357
stal	-5358
stre	-5359
ther	-5360
unes	-5361
urer	-5362
▁195	-5363
▁Jan	-5364
▁abc	-5365
▁dim	-5366
▁dur	-5367
▁fly	-5368
▁hay	-5369
▁jew	-5370
▁lee	-5371
▁lew	-5372
▁nit	-5373
▁ome	-5374
▁osc	-5375
▁ski	-5376
▁unf	-5377
▁vet	-5378
artin	-5379
asing	-5380
cture	-5381
eroid	-5382
iving	-5383
olate	-5384
pient	-5385
print	-5386
rance	-5387
ureau	-5388
usion	-5389
▁Drew	-5390
▁adam	-5391
▁alle	-5392
▁chat	-5393
▁club	-5394
▁desc	-5395
▁drag	-5396
▁euro	-5397
▁fame	-5398
▁fant	-5399
▁flip	-5400
▁gand	-5401
▁gray	-5402
▁lies	-5403
▁logo	-5404
▁moms	-5405
▁opin	-5406
▁prim	-5407
▁putt	-5408
▁salt	-5409
▁sens	-5410
▁sets	-5411
▁simp	-5412
▁siri	-5413
▁soap	-5414
▁tank	-5415
▁term	-5416
▁twin	-5417
▁urge	-5418
▁wrap	-5419
atives	-5420
ission	-5421
owment	-5422
ration	-5423
talion	-5424
veland	-5425
▁Brady	-5426
▁asset	-5427
▁bever	-5428
▁blond	-5429
▁broke	-5430
▁conce	-5431
▁draft	-5432
▁fired	-5433
▁flood	-5434
▁horse	-5435
▁incor	-5436
▁innoc	-5437
▁katie	-5438
▁moves	-5439
▁newsp	-5440
▁omega	-5441
▁phill	-5442
▁posts	-5443
▁stake	-5444
▁stock	-5445
▁subst	-5446
▁union	-5447
▁warri	-5448
▁anonym	-5449
▁august	-5450
▁bucket	-5451
▁casual	-5452
▁cereal	-5453
▁chinas	-5454
▁clever	-5455
▁coffin	-5456
▁compla	-5457
▁create	-5458
▁deaths	-5459
▁defect	-5460
▁detail	-5461
▁direct	-5462
▁expose	-5463
▁finale	-5464
▁guilty	-5465
▁hawaii	-5466
▁inquir	-5467
▁issues	-5468
▁killer	-5469
▁needed	-5470
▁opened	-5471
▁palace	-5472
▁refuge	-5473
▁regret	-5474
▁ronald	-5475
▁sketch	-5476
▁stores	-5477
▁unhapp	-5478
▁unveil	-5479
▁useful	-5480
▁voters	-5481
▁window	-5482
ologists	-5483
solution	-5484
▁Colbert	-5485
▁Harvard	-5486
▁January	-5487
▁animals	-5488
▁briefly	-5489
▁commute	-5490
▁consult	-5491
▁content	-5492
▁craving	-5493
▁example	-5494
▁graphic	-5495
▁greater	-5496
▁harvard	-5497
▁manager	-5498
▁meaning	-5499
▁meeting	-5500
▁newborn	-5501
▁nominee	-5502
▁organic	-5503
▁senator	-5504
▁speaker	-5505
▁stopped	-5506
▁swimmer	-5507
▁testing	-5508
▁theater	-5509
▁toddler	-5510
▁towards	-5511
▁Delaware	-5512
▁Williams	-5513
▁asteroid	-5514
▁athletes	-5515
▁benefits	-5516
▁colorado	-5517
▁communic	-5518
▁critical	-5519
▁earphone	-5520
▁european	-5521
▁lingerie	-5522
▁negative	-5523
▁passport	-5524
▁platform	-5525
▁problems	-5526
▁releases	-5527
▁saturday	-5528
▁southern	-5529
▁ultimate	-5530
▁upcoming	-5531
▁Christmas	-5532
▁awareness	-5533
▁battalion	-5534
▁billboard	-5535
▁broadcast	-5536
▁certainly	-5537
▁currently	-5538
▁elevation	-5539
▁endowment	-5540
▁ferocious	-5541
▁happiness	-5542
▁pollution	-5543
▁recipient	-5544
▁september	-5545
▁superhero	-5546
▁completely	-5547
▁leadership	-5548
▁narcissist	-5549
▁livescience	-5550
▁republicans	-5551
▁accidentally	-5552
lc	-5553
oa	-5554
Col	-5555
bod	-5556
chi	-5557
den	-5558
eve	-5559
ieu	-5560
isa	-5561
lad	-5562
onn	-5563
oop	-5564
phy	-5565
rah	-5566
raq	-5567
rel	-5568
set	-5569
una	-5570
▁28	-5571
▁33	-5572
▁49	-5573
▁75	-5574
▁St	-5575
▁dc	-5576
▁jk	-5577
▁ns	-5578
▁pc	-5579
acle	-5580
apri	-5581
arel	-5582
aria	-5583
aris	-5584
arks	-5585
ceny	-5586
cure	-5587
ella	-5588
fare	-5589
foot	-5590
game	-5591
iano	-5592
icon	-5593
irts	-5594
lake	-5595
lear	-5596
mond	-5597
nbsp	-5598
news	-5599
ober	-5600
olds	-5601
olit	-5602
onna	-5603
oore	-5604
opic	-5605
phor	-5606
poem	-5607
rict	-5608
ygen	-5609
▁202	-5610
▁Wat	-5611
▁abs	-5612
▁awk	-5613
▁bug	-5614
▁bun	-5615
▁cam	-5616
▁cav	-5617
▁cha	-5618
▁dou	-5619
▁dry	-5620
▁gab	-5621
▁kum	-5622
▁opt	-5623
▁osb	-5624
▁pap	-5625
▁pic	-5626
▁pra	-5627
▁rud	-5628
▁sag	-5629
▁sof	-5630
▁tum	-5631
▁typ	-5632
▁vag	-5633
achus	-5634
atomy	-5635
aving	-5636
balls	-5637
brush	-5638
cyrus	-5639
ement	-5640
epern	-5641
geous	-5642
ilian	-5643
ilipp	-5644
inski	-5645
ipher	-5646
istan	-5647
itute	-5648
laugh	-5649
melon	-5650
ndian	-5651
numer	-5652
osity	-5653
otted	-5654
rater	-5655
riate	-5656
rican	-5657
think	-5658
third	-5659
▁Russ	-5660
▁belt	-5661
▁braz	-5662
▁cake	-5663
▁choc	-5664
▁crop	-5665
▁dads	-5666
▁dare	-5667
▁disg	-5668
▁ends	-5669
▁fing	-5670
▁glam	-5671
▁grew	-5672
▁isis	-5673
▁liam	-5674
▁loan	-5675
▁mail	-5676
▁nove	-5677
▁odom	-5678
▁pint	-5679
▁plus	-5680
▁purs	-5681
▁shap	-5682
▁shel	-5683
▁ship	-5684
▁solo	-5685
▁tort	-5686
▁unle	-5687
▁warm	-5688
▁wire	-5689
anging	-5690
athing	-5691
ealand	-5692
ealthy	-5693
erdome	-5694
market	-5695
resent	-5696
runner	-5697
tering	-5698
uclear	-5699
washer	-5700
▁Cyrus	-5701
▁adieu	-5702
▁alert	-5703
▁apart	-5704
▁backy	-5705
▁bands	-5706
▁bonus	-5707
▁brady	-5708
▁bread	-5709
▁brian	-5710
▁cable	-5711
▁chart	-5712
▁clash	-5713
▁crist	-5714
▁dying	-5715
▁elder	-5716
▁elite	-5717
▁emoji	-5718
▁feels	-5719
▁frame	-5720
▁grimm	-5721
▁heavy	-5722
▁incri	-5723
▁indep	-5724
▁india	-5725
▁items	-5726
▁jared	-5727
▁jenna	-5728
▁jones	-5729
▁lover	-5730
▁lucky	-5731
▁lynch	-5732
▁meals	-5733
▁miser	-5734
▁mourn	-5735
▁naked	-5736
▁niant	-5737
▁owned	-5738
▁prime	-5739
▁quizz	-5740
▁rally	-5741
▁rough	-5742
▁shape	-5743
▁shell	-5744
▁squad	-5745
▁stage	-5746
▁tease	-5747
▁trail	-5748
entucky	-5749
husband	-5750
inarian	-5751
weather	-5752
▁Hawaii	-5753
▁actors	-5754
▁agency	-5755
▁assume	-5756
▁chrome	-5757
▁cipher	-5758
▁collab	-5759
▁consum	-5760
▁delete	-5761
▁dinner	-5762
▁either	-5763
▁emerge	-5764
▁excite	-5765
▁fitter	-5766
▁gamers	-5767
▁garden	-5768
▁grande	-5769
▁guitar	-5770
▁hiring	-5771
▁images	-5772
▁kitten	-5773
▁leaked	-5774
▁libert	-5775
▁manila	-5776
▁models	-5777
▁nobody	-5778
▁parade	-5779
▁remote	-5780
▁severe	-5781
▁showed	-5782
▁simply	-5783
▁skills	-5784
▁statue	-5785
▁trivia	-5786
▁turkey	-5787
▁valent	-5788
▁valley	-5789
Columbia	-5790
epernick	-5791
numerary	-5792
yearolds	-5793
▁Chicago	-5794
▁Russian	-5795
▁ability	-5796
▁anatomy	-5797
▁awkward	-5798
▁beverly	-5799
▁beyonce	-5800
▁britney	-5801
▁clooney	-5802
▁closely	-5803
▁counter	-5804
▁decades	-5805
▁foreman	-5806
▁grammys	-5807
▁hideous	-5808
▁hottest	-5809
▁indiana	-5810
▁larceny	-5811
▁outrage	-5812
▁produce	-5813
▁require	-5814
▁rumored	-5815
▁silicon	-5816
▁sixteen	-5817
▁spotted	-5818
▁unhappy	-5819
▁walmart	-5820
▁washing	-5821
achusetts	-5822
ilippines	-5823
▁District	-5824
▁anywhere	-5825
▁appeared	-5826
▁bachelor	-5827
▁bankrupt	-5828
▁baristas	-5829
▁catching	-5830
▁comments	-5831
▁confirms	-5832
▁contempt	-5833
▁eighteen	-5834
▁gorgeous	-5835
▁kindness	-5836
▁landmark	-5837
▁longterm	-5838
▁physical	-5839
▁proposal	-5840
▁reallife	-5841
▁surround	-5842
▁training	-5843
▁unlikely	-5844
▁warcraft	-5845
▁wondered	-5846
▁Elizabeth	-5847
▁americium	-5848
▁criticism	-5849
▁decidedly	-5850
▁education	-5851
▁instantly	-5852
▁lightning	-5853
▁presently	-5854
▁recording	-5855
▁strangers	-5856
▁connection	-5857
▁dishwasher	-5858
▁kaepernick	-5859
▁lastminute	-5860
▁lockerdome	-5861
▁management	-5862
▁mileycyrus	-5863
▁mysterious	-5864
▁passengers	-5865
▁politician	-5866
▁population	-5867
▁watermelon	-5868
▁anniversary	-5869
▁application	-5870
▁approaching	-5871
▁celebration	-5872
▁dissolution	-5873
▁kickstarter	-5874
▁libertarian	-5875
▁personalize	-5876
▁championship	-5877
▁photographer	-5878
▁unbelievable	-5879
▁veterinarian	-5880
▁incrimination	-5881
▁supernumerary	-5882
▁administration	-5883
ba	-5884
mo	-5885
aho	-5886
aly	-5887
bol	-5888
ech	-5889
eff	-5890
iac	-5891
rum	-5892
▁34	-5893
▁59	-5894
▁Sy	-5895
▁fu	-5896
▁wa	-5897
acon	-5898
acre	-5899
ares	-5900
ario	-5901
aves	-5902
boot	-5903
ceed	-5904
cest	-5905
cher	-5906
chor	-5907
duct	-5908
elly	-5909
emit	-5910
enty	-5911
erce	-5912
etti	-5913
gage	-5914
gger	-5915
haps	-5916
heit	-5917
igod	-5918
inge	-5919
iped	-5920
issa	-5921
life	-5922
load	-5923
look	-5924
olen	-5925
opsy	-5926
phan	-5927
quin	-5928
resp	-5929
ront	-5930
sten	-5931
sylv	-5932
thew	-5933
tons	-5934
uous	-5935
well	-5936
whel	-5937
wife	-5938
▁196	-5939
▁Jen	-5940
▁ack	-5941
▁bid	-5942
▁bom	-5943
▁cun	-5944
▁dlc	-5945
▁dod	-5946
▁dub	-5947
▁fbi	-5948
▁fry	-5949
▁gur	-5950
▁hud	-5951
▁jil	-5952
▁jol	-5953
▁joy	-5954
▁ren	-5955
▁usa	-5956
▁wes	-5957
aging	-5958
ahren	-5959
aling	-5960
antic	-5961
arous	-5962
domen	-5963
dress	-5964
going	-5965
ikini	-5966
lines	-5967
nvest	-5968
storm	-5969
▁Arab	-5970
▁Nove	-5971
▁boom	-5972
▁brun	-5973
▁bust	-5974
▁buys	-5975
▁clim	-5976
▁clin	-5977
▁coup	-5978
▁eggs	-5979
▁fill	-5980
▁gaga	-5981
▁gear	-5982
▁grey	-5983
▁hurt	-5984
▁july	-5985
▁kath	-5986
▁lure	-5987
▁menu	-5988
▁mike	-5989
▁pare	-5990
▁pork	-5991
▁sink	-5992
▁tone	-5993
▁toys	-5994
▁tung	-5995
▁uber	-5996
▁uses	-5997
▁virt	-5998
▁volc	-5999
Bureau	-6000
aneous	-6001
artney	-6002
dering	-6003
ective	-6004
iality	-6005
nthood	-6006
ontrol	-6007
ridges	-6008
▁20000	-6009
▁Jason	-6010
▁March	-6011
▁Texas	-6012
▁adapt	-6013
▁added	-6014
▁antib	-6015
▁audio	-6016
▁began	-6017
▁books	-6018
▁brock	-6019
▁caffe	-6020
▁cripp	-6021
▁drove	-6022
▁embra	-6023
▁enjoy	-6024
▁hills	-6025
▁homes	-6026
▁ideal	-6027
▁joint	-6028
▁lived	-6029
▁maker	-6030
▁medal	-6031
▁miles	-6032
▁moist	-6033
▁nails	-6034
▁newly	-6035
▁norah	-6036
▁oppos	-6037
▁quora	-6038
▁revel	-6039
▁saudi	-6040
▁sched	-6041
▁shirt	-6042
▁shout	-6043
▁voted	-6044
▁wears	-6045
ielberg	-6046
rinking	-6047
▁Jenner	-6048
▁London	-6049
▁acknow	-6050
▁anchor	-6051
▁awaken	-6052
▁brutal	-6053
▁bryant	-6054
▁celebs	-6055
▁coerce	-6056
▁column	-6057
▁combat	-6058
▁descry	-6059
▁empire	-6060
▁except	-6061
▁failed	-6062
▁fourth	-6063
▁inspir	-6064
▁invite	-6065
▁oscars	-6066
▁plenty	-6067
▁polish	-6068
▁prices	-6069
▁rabbit	-6070
▁resist	-6071
▁specul	-6072
▁speech	-6073
▁tinder	-6074
▁trader	-6075
▁triple	-6076
▁weekly	-6077
▁within	-6078
gressive	-6079
quotient	-6080
shilling	-6081
sylvania	-6082
▁Calorie	-6083
▁abdomen	-6084
▁apparel	-6085
▁approve	-6086
▁blowing	-6087
▁boycott	-6088
▁chances	-6089
▁charged	-6090
▁cocaine	-6091
▁conceal	-6092
▁confuse	-6093
▁convers	-6094
▁creator	-6095
▁cunning	-6096
▁demigod	-6097
▁forward	-6098
▁katrina	-6099
▁managed	-6100
▁members	-6101
▁mexican	-6102
▁mothers	-6103
▁neonate	-6104
▁nuclear	-6105
▁numbers	-6106
▁overall	-6107
▁painful	-6108
▁patriot	-6109
▁perhaps	-6110
▁playboy	-6111
▁respons	-6112
▁returns	-6113
▁russian	-6114
▁savings	-6115
▁secrets	-6116
▁setting	-6117
▁singing	-6118
▁tourist	-6119
ahrenheit	-6120
▁European	-6121
▁November	-6122
▁aluminum	-6123
▁audition	-6124
▁backyard	-6125
▁bringing	-6126
▁canadian	-6127
▁creature	-6128
▁festival	-6129
▁floating	-6130
▁freshman	-6131
▁gambling	-6132
▁historic	-6133
▁homework	-6134
▁legalize	-6135
▁metallic	-6136
▁nitrogen	-6137
▁normally	-6138
▁november	-6139
▁physique	-6140
▁planning	-6141
▁recovery	-6142
▁rudiment	-6143
▁tungsten	-6144
▁barbarous	-6145
▁chocolate	-6146
▁christina	-6147
▁emotional	-6148
▁plaything	-6149
▁universal	-6150
▁Australian	-6151
▁decoration	-6152
▁parenthood	-6153
▁presidents	-6154
▁resolution	-6155
▁supporters	-6156
▁triviality	-6157
▁mathematics	-6158
▁manufacturer	-6159
eh	-6160
gs	-6161
sk	-6162
800	-6163
agh	-6164
amm	-6165
asy	-6166
bey	-6167
dge	-6168
dle	-6169
equ	-6170
ilo	-6171
jay	-6172
kea	-6173
lel	-6174
mad	-6175
mit	-6176
mor	-6177
oli	-6178
omp	-6179
oor	-6180
ota	-6181
put	-6182
uer	-6183
wed	-6184
▁39	-6185
▁Al	-6186
▁As	-6187
▁Ea	-6188
▁ah	-6189
▁ck	-6190
▁ec	-6191
▁gm	-6192
▁ni	-6193
▁oh	-6194
▁pm	-6195
2013	-6196
ader	-6197
ados	-6198
aint	-6199
alie	-6200
aska	-6201
aton	-6202
bble	-6203
case	-6204
door	-6205
enez	-6206
enna	-6207
enom	-6208
fall	-6209
feld	-6210
iers	-6211
lors	-6212
mans	-6213
math	-6214
mers	-6215
olar	-6216
olic	-6217
olks	-6218
onda	-6219
oner	-6220
ouri	-6221
scom	-6222
seum	-6223
usch	-6224
▁401	-6225
▁aim	-6226
▁aka	-6227
▁atl	-6228
▁cro	-6229
▁dan	-6230
▁dic	-6231
▁doc	-6232
▁dol	-6233
▁eth	-6234
▁lic	-6235
▁lul	-6236
▁mcc	-6237
▁nap	-6238
▁nov	-6239
▁pac	-6240
▁pir	-6241
▁raf	-6242
▁sem	-6243
▁tab	-6244
▁tap	-6245
▁var	-6246
▁vic	-6247
▁vul	-6248
▁wol	-6249
▁wow	-6250
abama	-6251
amond	-6252
aprio	-6253
asive	-6254
astic	-6255
atern	-6256
athon	-6257
blanc	-6258
break	-6259
enade	-6260
encer	-6261
evous	-6262
first	-6263
grade	-6264
inkle	-6265
ipped	-6266
itect	-6267
itted	-6268
latan	-6269
odies	-6270
omsky	-6271
ourse	-6272
paste	-6273
proof	-6274
space	-6275
uster	-6276
▁Char	-6277
▁Stan	-6278
▁acne	-6279
▁alex	-6280
▁avoc	-6281
▁bart	-6282
▁bean	-6283
▁chef	-6284
▁cran	-6285
▁dumb	-6286
▁evol	-6287
▁fate	-6288
▁harb	-6289
▁held	-6290
▁holy	-6291
▁ikea	-6292
▁inse	-6293
▁kerr	-6294
▁khal	-6295
▁lane	-6296
▁lego	-6297
▁load	-6298
▁mash	-6299
▁mont	-6300
▁moss	-6301
▁neur	-6302
▁nose	-6303
▁pale	-6304
▁pear	-6305
▁poop	-6306
▁popp	-6307
▁prol	-6308
▁qual	-6309
▁ring	-6310
▁ross	-6311
▁salv	-6312
▁sofa	-6313
▁spac	-6314
▁thom	-6315
▁thre	-6316
▁tops	-6317
▁wolf	-6318
cupine	-6319
entgen	-6320
estyle	-6321
issing	-6322
secute	-6323
ulemon	-6324
▁16000	-6325
▁abuse	-6326
▁allen	-6327
▁axial	-6328
▁brave	-6329
▁crick	-6330
▁crown	-6331
▁crush	-6332
▁curry	-6333
▁danny	-6334
▁deals	-6335
▁delta	-6336
▁drill	-6337
▁drunk	-6338
▁entry	-6339
▁famil	-6340
▁fatal	-6341
▁folks	-6342
▁fredd	-6343
▁gamer	-6344
▁gomez	-6345
▁honor	-6346
▁ideas	-6347
▁jolie	-6348
▁lamar	-6349
▁lands	-6350
▁lemon	-6351
▁loved	-6352
▁lying	-6353
▁maxim	-6354
▁mosqu	-6355
▁moved	-6356
▁noise	-6357
▁numer	-6358
▁optim	-6359
▁polls	-6360
▁prost	-6361
▁sachs	-6362
▁separ	-6363
▁smugg	-6364
▁snake	-6365
▁snoop	-6366
▁spagh	-6367
▁spark	-6368
▁spine	-6369
▁stamp	-6370
▁stole	-6371
▁syria	-6372
▁teeth	-6373
▁theyd	-6374
▁torto	-6375
▁uncom	-6376
▁vogue	-6377
ciously	-6378
ebruary	-6379
enezuel	-6380
eration	-6381
essions	-6382
ibility	-6383
igation	-6384
itution	-6385
ongress	-6386
▁August	-6387
▁adults	-6388
▁allows	-6389
▁betray	-6390
▁biopic	-6391
▁chickf	-6392
▁church	-6393
▁circle	-6394
▁conven	-6395
▁cowork	-6396
▁dallas	-6397
▁device	-6398
▁dozens	-6399
▁druley	-6400
▁encoun	-6401
▁explor	-6402
▁finish	-6403
▁forbes	-6404
▁headed	-6405
▁horror	-6406
▁hunger	-6407
▁immigr	-6408
▁immune	-6409
▁itunes	-6410
▁jingle	-6411
▁length	-6412
▁museum	-6413
▁native	-6414
▁orders	-6415
▁owners	-6416
▁rachel	-6417
▁racing	-6418
▁random	-6419
▁reader	-6420
▁robert	-6421
▁romcom	-6422
▁seeing	-6423
▁silver	-6424
▁slowly	-6425
▁smooth	-6426
▁strike	-6427
▁symbol	-6428
▁taught	-6429
▁traits	-6430
▁tweets	-6431
▁undere	-6432
▁vagina	-6433
▁vulner	-6434
▁welker	-6435
▁widely	-6436
▁zlatan	-6437
cription	-6438
omething	-6439
rotation	-6440
▁Numbers	-6441
▁Simpson	-6442
▁advance	-6443
▁adviser	-6444
▁alleged	-6445
▁angelou	-6446
▁attacks	-6447
▁beyoncé	-6448
▁breakup	-6449
▁buffett	-6450
▁charges	-6451
▁contain	-6452
▁council	-6453
▁depress	-6454
▁diamond	-6455
▁diction	-6456
▁england	-6457
▁ethical	-6458
▁excited	-6459
▁fascist	-6460
▁fishing	-6461
▁formula	-6462
▁fortune	-6463
▁leblanc	-6464
▁lessons	-6465
▁masturb	-6466
▁melania	-6467
▁miracle	-6468
▁miranda	-6469
▁mission	-6470
▁natalie	-6471
▁nations	-6472
▁niantic	-6473
▁offense	-6474
▁opinion	-6475
▁pineapp	-6476
▁pyramid	-6477
▁reached	-6478
▁reunion	-6479
▁rihanna	-6480
▁ronaldo	-6481
▁sisters	-6482
▁taylors	-6483
▁tracker	-6484
▁workout	-6485
▁analysis	-6486
▁angelina	-6487
▁beyonces	-6488
▁citizens	-6489
▁computer	-6490
▁cranston	-6491
▁criminal	-6492
▁crippled	-6493
▁dicaprio	-6494
▁document	-6495
▁europium	-6496
▁grievous	-6497
▁independ	-6498
▁linkedin	-6499
▁mentally	-6500
▁militant	-6501
▁nintendo	-6502
▁numerous	-6503
▁officers	-6504
▁patients	-6505
▁properly	-6506
▁purchase	-6507
▁replaced	-6508
▁roentgen	-6509
▁strategy	-6510
▁stronger	-6511
▁superman	-6512
▁terminal	-6513
▁veterans	-6514
▁addiction	-6515
▁aftermath	-6516
▁appliance	-6517
▁architect	-6518
▁butterfly	-6519
▁cognitive	-6520
▁cristiano	-6521
▁discovers	-6522
▁googlecom	-6523
▁healthier	-6524
▁lululemon	-6525
▁magazines	-6526
▁miserable	-6527
▁newspaper	-6528
▁porcupine	-6529
▁promenade	-6530
▁prosecute	-6531
▁remainder	-6532
▁residents	-6533
▁screening	-6534
▁spaghetti	-6535
▁supporter	-6536
▁twentieth	-6537
▁candidates	-6538
▁comparison	-6539
▁conditions	-6540
▁historical	-6541
▁internship	-6542
▁interviews	-6543
▁lifesaving	-6544
▁profession	-6545
▁revelation	-6546
▁toothbrush	-6547
▁toothpaste	-6548
nvestigation	-6549
▁potentially	-6550
▁supermarket	-6551
▁satisfaction	-6552
▁psychological	-6553
▁transformation	-6554
ae	-6555
ec	-6556
039	-6557
apy	-6558
coa	-6559
ige	-6560
iny	-6561
lee	-6562
met	-6563
omi	-6564
pse	-6565
ril	-6566
tie	-6567
uly	-6568
▁99	-6569
▁dm	-6570
▁ts	-6571
ador	-6572
anum	-6573
bars	-6574
ccer	-6575
ches	-6576
eart	-6577
feed	-6578
good	-6579
hour	-6580
illy	-6581
jerk	-6582
lace	-6583
mail	-6584
ores	-6585
reek	-6586
ring	-6587
sell	-6588
uing	-6589
uish	-6590
walk	-6591
wift	-6592
zona	-6593
▁500	-6594
▁And	-6595
▁Lee	-6596
▁Nor	-6597
▁Rod	-6598
▁War	-6599
▁aub	-6600
▁bee	-6601
▁dav	-6602
▁edt	-6603
▁ess	-6604
▁fee	-6605
▁gla	-6606
▁hue	-6607
▁lur	-6608
▁mew	-6609
▁mug	-6610
▁pix	-6611
▁suc	-6612
▁tan	-6613
▁wid	-6614
anced	-6615
aters	-6616
ateur	-6617
athan	-6618
atory	-6619
being	-6620
berth	-6621
celer	-6622
hetic	-6623
igare	-6624
lands	-6625
nered	-6626
oices	-6627
riger	-6628
secut	-6629
trump	-6630
under	-6631
▁Born	-6632
▁July	-6633
▁adri	-6634
▁bald	-6635
▁cage	-6636
▁cous	-6637
▁cure	-6638
▁exch	-6639
▁feat	-6640
▁frog	-6641
▁glue	-6642
▁goal	-6643
▁hung	-6644
▁itll	-6645
▁khan	-6646
▁kras	-6647
▁lenn	-6648
▁lion	-6649
▁liqu	-6650
▁nate	-6651
▁nice	-6652
▁pitt	-6653
▁pros	-6654
▁rear	-6655
▁rebu	-6656
▁scan	-6657
▁skip	-6658
▁soda	-6659
▁spok	-6660
▁stap	-6661
▁tenn	-6662
▁tire	-6663
▁vine	-6664
▁whit	-6665
▁wore	-6666
around	-6667
chance	-6668
gering	-6669
icious	-6670
intosh	-6671
ishing	-6672
makers	-6673
stream	-6674
▁Aaron	-6675
▁Japan	-6676
▁Syria	-6677
▁Torah	-6678
▁amuse	-6679
▁baron	-6680
▁bills	-6681
▁botch	-6682
▁chose	-6683
▁cocoa	-6684
▁corps	-6685
▁crawl	-6686
▁daddy	-6687
▁emily	-6688
▁estim	-6689
▁extro	-6690
▁fewer	-6691
▁frank	-6692
▁grill	-6693
▁haunt	-6694
▁hyper	-6695
▁japan	-6696
▁label	-6697
▁lanth	-6698
▁loses	-6699
▁maria	-6700
▁plain	-6701
▁quote	-6702
▁radar	-6703
▁rapid	-6704
▁recre	-6705
▁retro	-6706
▁rules	-6707
▁scott	-6708
▁sends	-6709
▁simon	-6710
▁smash	-6711
▁solid	-6712
▁sperm	-6713
▁stalk	-6714
▁sting	-6715
▁stops	-6716
▁suing	-6717
▁sweat	-6718
▁taxes	-6719
▁tebow	-6720
▁thief	-6721
▁woods	-6722
▁yield	-6723
astroph	-6724
idelity	-6725
ificial	-6726
iveness	-6727
raction	-6728
respond	-6729
unction	-6730
▁Mexico	-6731
▁abroad	-6732
▁allege	-6733
▁ampere	-6734
▁apolog	-6735
▁arrive	-6736
▁ashley	-6737
▁asking	-6738
▁associ	-6739
▁ballad	-6740
▁begins	-6741
▁biting	-6742
▁burger	-6743
▁buried	-6744
▁condom	-6745
▁denver	-6746
▁donate	-6747
▁dreams	-6748
▁expand	-6749
▁fallon	-6750
▁france	-6751
▁german	-6752
▁holder	-6753
▁jenner	-6754
▁joined	-6755
▁lauren	-6756
▁nicole	-6757
▁output	-6758
▁policy	-6759
▁praise	-6760
▁reboot	-6761
▁region	-6762
▁relief	-6763
▁resort	-6764
▁selena	-6765
▁shades	-6766
▁shadow	-6767
▁soccer	-6768
▁sooner	-6769
▁stairs	-6770
▁stocks	-6771
▁stolen	-6772
▁talent	-6773
▁threat	-6774
▁unlock	-6775
▁upload	-6776
▁vision	-6777
▁voting	-6778
▁warren	-6779
▁wildly	-6780
arrymore	-6781
thousand	-6782
▁England	-6783
▁English	-6784
▁Rodgers	-6785
▁acceler	-6786
▁autopsy	-6787
▁avenger	-6788
▁bottles	-6789
▁britain	-6790
▁burning	-6791
▁chinese	-6792
▁closure	-6793
▁complic	-6794
▁concent	-6795
▁created	-6796
▁crystal	-6797
▁cutting	-6798
▁delight	-6799
▁emerged	-6800
▁enforce	-6801
▁express	-6802
▁founder	-6803
▁funding	-6804
▁happier	-6805
▁highway	-6806
▁holding	-6807
▁initial	-6808
▁inquiry	-6809
▁involve	-6810
▁license	-6811
▁marries	-6812
▁necktie	-6813
▁obscure	-6814
▁ordered	-6815
▁orgasms	-6816
▁section	-6817
▁showing	-6818
▁society	-6819
▁spoiler	-6820
▁spotify	-6821
▁stunned	-6822
▁tweeted	-6823
▁walking	-6824
rigerator	-6825
▁antibiot	-6826
▁avengers	-6827
▁deadline	-6828
▁designed	-6829
▁discount	-6830
▁entirely	-6831
▁estimate	-6832
▁exchange	-6833
▁fabulous	-6834
▁families	-6835
▁feminist	-6836
▁happiest	-6837
▁innocent	-6838
▁lifetime	-6839
▁medalist	-6840
▁murderer	-6841
▁offering	-6842
▁phillips	-6843
▁property	-6844
▁teachers	-6845
▁virginia	-6846
▁wireless	-6847
▁applicant	-6848
▁calculate	-6849
▁construct	-6850
▁consumers	-6851
▁deadliest	-6852
▁doddering	-6853
▁guarantee	-6854
▁halloween	-6855
▁krasinski	-6856
▁lanthanum	-6857
▁literally	-6858
▁offensive	-6859
▁officials	-6860
▁pronounce	-6861
▁retention	-6862
▁underwear	-6863
▁aggressive	-6864
▁artificial	-6865
▁businesses	-6866
▁catastroph	-6867
▁correspond	-6868
▁headphones	-6869
▁infidelity	-6870
▁mayweather	-6871
▁possession	-6872
▁protection	-6873
▁relatively	-6874
▁suspension	-6875
▁vulnerable	-6876
▁acknowledge	-6877
▁brilliantly	-6878
▁considering	-6879
▁incorporate	-6880
▁ingredients	-6881
▁inspiration	-6882
▁legislation	-6883
▁taylorswift	-6884
▁conversation	-6885
▁specifically	-6886
▁environmental	-6887
▁uncomfortable	-6888
kh	-6889
ns	-6890
vi	-6891
ya	-6892
és	-6893
ban	-6894
cin	-6895
emp	-6896
eng	-6897
esy	-6898
eto	-6899
flu	-6900
oah	-6901
omn	-6902
raw	-6903
rip	-6904
six	-6905
umé	-6906
zed	-6907
▁09	-6908
▁54	-6909
▁cb	-6910
▁dw	-6911
▁eb	-6912
▁ib	-6913
▁nx	-6914
▁ta	-6915
▁ub	-6916
acey	-6917
apse	-6918
area	-6919
asse	-6920
atin	-6921
audi	-6922
bian	-6923
bilt	-6924
coin	-6925
ends	-6926
eria	-6927
erie	-6928
gate	-6929
gypt	-6930
hatt	-6931
hton	-6932
icut	-6933
ilia	-6934
imir	-6935
ixon	-6936
izer	-6937
kill	-6938
lect	-6939
mble	-6940
mith	-6941
ompe	-6942
open	-6943
opus	-6944
orea	-6945
rust	-6946
uten	-6947
week	-6948
weet	-6949
ziel	-6950
▁Den	-6951
▁Det	-6952
▁Dur	-6953
▁Ham	-6954
▁ace	-6955
▁aly	-6956
▁aqu	-6957
▁aze	-6958
▁bff	-6959
▁cod	-6960
▁cub	-6961
▁cud	-6962
▁der	-6963
▁dip	-6964
▁dor	-6965
▁fur	-6966
▁gel	-6967
▁gem	-6968
▁gut	-6969
▁hey	-6970
▁hic	-6971
▁hub	-6972
▁hul	-6973
▁mud	-6974
▁nab	-6975
▁nan	-6976
▁nav	-6977
▁pig	-6978
▁rés	-6979
▁sab	-6980
▁sla	-6981
▁vap	-6982
▁voc	-6983
▁wik	-6984
▁wwe	-6985
actic	-6986
anian	-6987
bable	-6988
based	-6989
berts	-6990
boken	-6991
ccoli	-6992
devil	-6993
diode	-6994
earth	-6995
fying	-6996
goers	-6997
guise	-6998
heart	-6999
idate	-7000
ierre	-7001
ijing	-7002
iphop	-7003
ivera	-7004
izard	-7005
leman	-7006
mouth	-7007
ogame	-7008
onard	-7009
oodle	-7010
opoly	-7011
otten	-7012
overs	-7013
oying	-7014
prene	-7015
stone	-7016
tered	-7017
ucker	-7018
uters	-7019
worth	-7020
▁1980	-7021
▁6500	-7022
▁Braz	-7023
▁Dias	-7024
▁Lego	-7025
▁Leto	-7026
▁Mont	-7027
▁anil	-7028
▁athe	-7029
▁auto	-7030
▁bale	-7031
▁blew	-7032
▁brew	-7033
▁buck	-7034
▁cafe	-7035
▁chow	-7036
▁circ	-7037
▁coat	-7038
▁coke	-7039
▁corp	-7040
▁curi	-7041
▁cute	-7042
▁damn	-7043
▁dave	-7044
▁degr	-7045
▁deny	-7046
▁diaz	-7047
▁dogg	-7048
▁dopp	-7049
▁dose	-7050
▁dram	-7051
▁duty	-7052
▁elon	-7053
▁fell	-7054
▁feud	-7055
▁fool	-7056
▁furn	-7057
▁gene	-7058
▁goto	-7059
▁gren	-7060
▁hann	-7061
▁heat	-7062
▁hits	-7063
▁hugh	-7064
▁infu	-7065
▁jour	-7066
▁karl	-7067
▁kend	-7068
▁kiss	-7069
▁lisa	-7070
▁mack	-7071
▁malf	-7072
▁maps	-7073
▁mate	-7074
▁maya	-7075
▁navy	-7076
▁obit	-7077
▁plug	-7078
▁puts	-7079
▁rash	-7080
▁sant	-7081
▁sein	-7082
▁shaw	-7083
▁skys	-7084
▁subs	-7085
▁tack	-7086
▁tall	-7087
▁upst	-7088
▁util	-7089
▁vlad	-7090
active	-7091
asters	-7092
crater	-7093
enomen	-7094
fluent	-7095
inance	-7096
indsay	-7097
itable	-7098
parent	-7099
ynolds	-7100
▁Allen	-7101
▁Jones	-7102
▁Mayan	-7103
▁abbey	-7104
▁alien	-7105
▁andre	-7106
▁annoy	-7107
▁badly	-7108
▁bella	-7109
▁bones	-7110
▁bound	-7111
▁brass	-7112
▁cagey	-7113
▁cards	-7114
▁carey	-7115
▁chair	-7116
▁chuck	-7117
▁citys	-7118
▁demur	-7119
▁dolph	-7120
▁drain	-7121
▁entre	-7122
▁eyebr	-7123
▁faint	-7124
▁falls	-7125
▁fiber	-7126
▁flesh	-7127
▁floss	-7128
▁floyd	-7129
▁grabs	-7130
▁gradu	-7131
▁haste	-7132
▁hated	-7133
▁inher	-7134
▁inner	-7135
▁kills	-7136
▁lorde	-7137
▁memor	-7138
▁meter	-7139
▁miami	-7140
▁momoa	-7141
▁monog	-7142
▁morty	-7143
▁nanny	-7144
▁onion	-7145
▁oprah	-7146
▁pants	-7147
▁pearl	-7148
▁plaza	-7149
▁range	-7150
▁ranks	-7151
▁raven	-7152
▁reign	-7153
▁robin	-7154
▁shoes	-7155
▁slain	-7156
▁smith	-7157
▁sneak	-7158
▁stard	-7159
▁steel	-7160
▁storm	-7161
▁susan	-7162
▁teams	-7163
▁teddy	-7164
▁terms	-7165
▁tight	-7166
▁tourn	-7167
▁tower	-7168
▁types	-7169
▁uncle	-7170
▁unpro	-7171
▁urban	-7172
▁viola	-7173
arctica	-7174
driving	-7175
igander	-7176
ighters	-7177
ignment	-7178
ruction	-7179
umptive	-7180
▁180000	-7181
▁Denver	-7182
▁Mister	-7183
▁Robert	-7184
▁admits	-7185
▁advert	-7186
▁andrew	-7187
▁argent	-7188
▁assort	-7189
▁banish	-7190
▁belong	-7191
▁branch	-7192
▁brands	-7193
▁brings	-7194
▁budget	-7195
▁bullet	-7196
▁client	-7197
▁colour	-7198
▁copper	-7199
▁costco	-7200
▁drinks	-7201
▁earned	-7202
▁easier	-7203
▁exwife	-7204
▁fridge	-7205
▁gluten	-7206
▁grandm	-7207
▁guests	-7208
▁hearts	-7209
▁height	-7210
▁hiding	-7211
▁hiphop	-7212
▁julian	-7213
▁ladies	-7214
▁lively	-7215
▁lovers	-7216
▁lupita	-7217
▁maroon	-7218
▁meteor	-7219
▁neighb	-7220
▁nugget	-7221
▁oxygen	-7222
▁patron	-7223
▁proved	-7224
▁rising	-7225
▁robbie	-7226
▁résumé	-7227
▁silent	-7228
▁spends	-7229
▁square	-7230
▁swerve	-7231
▁thorne	-7232
▁visual	-7233
▁watson	-7234
▁welcom	-7235
▁wolver	-7236
▁worsen	-7237
changing	-7238
emitting	-7239
monthold	-7240
stically	-7241
▁Detroit	-7242
▁adopted	-7243
▁allergy	-7244
▁appreci	-7245
▁azealia	-7246
▁barbara	-7247
▁barroom	-7248
▁beating	-7249
▁bitcoin	-7250
▁bracket	-7251
▁central	-7252
▁compare	-7253
▁concept	-7254
▁contact	-7255
▁defense	-7256
▁disgust	-7257
▁downton	-7258
▁earthqu	-7259
▁endless	-7260
▁federal	-7261
▁ferrari	-7262
▁gandolf	-7263
▁hoboken	-7264
▁inaugur	-7265
▁journey	-7266
▁kissing	-7267
▁largely	-7268
▁leading	-7269
▁lesbian	-7270
▁limited	-7271
▁manziel	-7272
▁matters	-7273
▁mercury	-7274
▁michele	-7275
▁minimum	-7276
▁octopus	-7277
▁ongoing	-7278
▁parking	-7279
▁planets	-7280
▁preview	-7281
▁privile	-7282
▁quizzes	-7283
▁regular	-7284
▁revenge	-7285
▁reverse	-7286
▁salvage	-7287
▁seating	-7288
▁spectac	-7289
▁studies	-7290
▁succeed	-7291
▁sucking	-7292
▁symptom	-7293
▁targets	-7294
▁tickets	-7295
▁trainer	-7296
▁unearth	-7297
▁unthink	-7298
▁usually	-7299
▁verdict	-7300
▁waiting	-7301
▁western	-7302
▁workday	-7303
▁writers	-7304
▁yorkers	-7305
anderbilt	-7306
▁Hamilton	-7307
▁affluent	-7308
▁animated	-7309
▁annoying	-7310
▁answered	-7311
▁bloomers	-7312
▁broccoli	-7313
▁caffeine	-7314
▁canceled	-7315
▁cheaters	-7316
▁collapse	-7317
▁courtney	-7318
▁creating	-7319
▁deceiver	-7320
▁disguise	-7321
▁dramatic	-7322
▁elements	-7323
▁endorsed	-7324
▁equality	-7325
▁exposure	-7326
▁eyesight	-7327
▁hamilton	-7328
▁inspired	-7329
▁marathon	-7330
▁monopoly	-7331
▁mortgage	-7332
▁mosquito	-7333
▁netflixs	-7334
▁northern	-7335
▁osbourne	-7336
▁parallel	-7337
▁phenomen	-7338
▁practice	-7339
▁promises	-7340
▁prosecut	-7341
▁publicly	-7342
▁redditor	-7343
▁register	-7344
▁reminder	-7345
▁retiring	-7346
▁simpsons	-7347
▁spelling	-7348
▁tortoise	-7349
▁vladimir	-7350
▁volcanic	-7351
▁Australia	-7352
▁Halloween	-7353
▁Oklahoman	-7354
▁bloomberg	-7355
▁brassiere	-7356
▁breathing	-7357
▁chickfila	-7358
▁christian	-7359
▁coachella	-7360
▁corporate	-7361
▁daredevil	-7362
▁dentition	-7363
▁designers	-7364
▁discourse	-7365
▁fantastic	-7366
▁fisherman	-7367
▁headlines	-7368
▁identical	-7369
▁introvert	-7370
▁listening	-7371
▁obviously	-7372
▁pineapple	-7373
▁powerball	-7374
▁preschool	-7375
▁represent	-7376
▁schilling	-7377
▁sexuality	-7378
▁somewhere	-7379
▁typically	-7380
▁unhealthy	-7381
▁videogame	-7382
▁australian	-7383
▁contestant	-7384
▁dictionary	-7385
▁engagement	-7386
▁entreprene	-7387
▁impressive	-7388
▁improbable	-7389
▁productive	-7390
▁resistance	-7391
▁tournament	-7392
▁Michigander	-7393
▁campaigning	-7394
▁concealment	-7395
▁frontrunner	-7396
▁grandparent	-7397
▁hilariously	-7398
▁presumptive	-7399
▁selfdriving	-7400
▁significant	-7401
▁transformer	-7402
▁unthinkable	-7403
▁awardwinning	-7404
▁independence	-7405
▁masturbation	-7406
▁psychologist	-7407
▁recreational	-7408
▁correspondent	-7409
15	-7410
45	-7411
AS	-7412
mi	-7413
tf	-7414
amb	-7415
anz	-7416
arp	-7417
aza	-7418
bet	-7419
bra	-7420
bus	-7421
bye	-7422
cho	-7423
ece	-7424
how	-7425
hul	-7426
ima	-7427
inf	-7428
ked	-7429
log	-7430
lut	-7431
net	-7432
opr	-7433
pop	-7434
ref	-7435
uch	-7436
uis	-7437
ulg	-7438
ync	-7439
▁48	-7440
▁ok	-7441
airy	-7442
amus	-7443
aped	-7444
aret	-7445
chen	-7446
cier	-7447
daho	-7448
edic	-7449
eing	-7450
elps	-7451
essa	-7452
gard	-7453
ghan	-7454
grow	-7455
iate	-7456
icia	-7457
ided	-7458
iece	-7459
inal	-7460
ined	-7461
isle	-7462
maid	-7463
mium	-7464
mons	-7465
offs	-7466
olis	-7467
oric	-7468
rite	-7469
rook	-7470
thon	-7471
tles	-7472
ular	-7473
utin	-7474
ycle	-7475
▁117	-7476
▁Ari	-7477
▁Bur	-7478
▁How	-7479
▁Jew	-7480
▁Tor	-7481
▁Tur	-7482
▁ate	-7483
▁coo	-7484
▁cyn	-7485
▁dug	-7486
▁gil	-7487
▁ivy	-7488
▁laz	-7489
▁mob	-7490
▁mum	-7491
▁nev	-7492
▁spy	-7493
▁tsh	-7494
▁zoo	-7495
anded	-7496
arend	-7497
atell	-7498
chant	-7499
crast	-7500
ensil	-7501
eping	-7502
esity	-7503
essee	-7504
fries	-7505
inite	-7506
inter	-7507
iolet	-7508
iture	-7509
lette	-7510
night	-7511
opher	-7512
party	-7513
perce	-7514
stein	-7515
▁2007	-7516
▁2011	-7517
▁Dece	-7518
▁Lena	-7519
▁Moon	-7520
▁Nice	-7521
▁acet	-7522
▁army	-7523
▁barn	-7524
▁bold	-7525
▁bury	-7526
▁cavs	-7527
▁coil	-7528
▁cuts	-7529
▁cycl	-7530
▁decl	-7531
▁disp	-7532
▁dude	-7533
▁elim	-7534
▁epip	-7535
▁farm	-7536
▁gall	-7537
▁grav	-7538
▁guru	-7539
▁hemp	-7540
▁kobe	-7541
▁lawn	-7542
▁lays	-7543
▁lena	-7544
▁leto	-7545
▁liar	-7546
▁loch	-7547
▁loom	-7548
▁mamm	-7549
▁nerd	-7550
▁nerv	-7551
▁nest	-7552
▁ohio	-7553
▁rail	-7554
▁rant	-7555
▁saga	-7556
▁scot	-7557
▁seap	-7558
▁sopr	-7559
▁stag	-7560
▁ster	-7561
▁tape	-7562
▁thaw	-7563
▁thug	-7564
▁ties	-7565
▁vacc	-7566
▁wise	-7567
braska	-7568
ground	-7569
hattan	-7570
iliate	-7571
istics	-7572
lessly	-7573
ndiana	-7574
period	-7575
screen	-7576
uitive	-7577
umatic	-7578
zzling	-7579
▁Roman	-7580
▁Saudi	-7581
▁Scott	-7582
▁accus	-7583
▁aisle	-7584
▁aller	-7585
▁alumn	-7586
▁amber	-7587
▁arche	-7588
▁blaze	-7589
▁brink	-7590
▁candy	-7591
▁clark	-7592
▁cloth	-7593
▁curve	-7594
▁defic	-7595
▁diver	-7596
▁ended	-7597
▁etern	-7598
▁gladi	-7599
▁groom	-7600
▁hadnt	-7601
▁hears	-7602
▁hurry	-7603
▁jesus	-7604
▁joins	-7605
▁julia	-7606
▁lamin	-7607
▁latin	-7608
▁lewis	-7609
▁mario	-7610
▁mount	-7611
▁overd	-7612
▁quiet	-7613
▁rahul	-7614
▁sarah	-7615
▁shade	-7616
▁shark	-7617
▁sharp	-7618
▁skirt	-7619
▁snack	-7620
▁spear	-7621
▁spots	-7622
▁steps	-7623
▁surge	-7624
▁tears	-7625
▁tests	-7626
▁theft	-7627
▁usher	-7628
▁vegan	-7629
▁wales	-7630
▁warns	-7631
berlake	-7632
irginia	-7633
lection	-7634
million	-7635
▁100000	-7636
▁200000	-7637
▁Burger	-7638
▁Dallas	-7639
▁Howard	-7640
▁Rachel	-7641
▁Watson	-7642
▁adding	-7643
▁advant	-7644
▁alicia	-7645
▁arabia	-7646
▁aspect	-7647
▁assass	-7648
▁awards	-7649
▁bieber	-7650
▁bitter	-7651
▁bright	-7652
▁carpet	-7653
▁cattle	-7654
▁causes	-7655
▁cigare	-7656
▁cousin	-7657
▁cumber	-7658
▁events	-7659
▁falcon	-7660
▁forced	-7661
▁gaming	-7662
▁gather	-7663
▁hoping	-7664
▁income	-7665
▁israel	-7666
▁manage	-7667
▁menace	-7668
▁mexico	-7669
▁murphy	-7670
▁orange	-7671
▁outfit	-7672
▁pedest	-7673
▁phelps	-7674
▁pierce	-7675
▁proves	-7676
▁ranked	-7677
▁refund	-7678
▁reopen	-7679
▁safest	-7680
▁satell	-7681
▁served	-7682
▁settle	-7683
▁solved	-7684
▁speaks	-7685
▁subway	-7686
▁temper	-7687
▁tracks	-7688
▁trends	-7689
▁unless	-7690
▁walked	-7691
▁warned	-7692
▁wilson	-7693
atically	-7694
inations	-7695
ribution	-7696
▁Bridges	-7697
▁Chinese	-7698
▁Toronto	-7699
▁bridges	-7700
▁casting	-7701
▁ceiling	-7702
▁citizen	-7703
▁clearly	-7704
▁deceler	-7705
▁deserve	-7706
▁drawing	-7707
▁dressed	-7708
▁effects	-7709
▁element	-7710
▁elusive	-7711
▁embrace	-7712
▁enchant	-7713
▁endorse	-7714
▁eyebrow	-7715
▁falling	-7716
▁figured	-7717
▁furious	-7718
▁goodbye	-7719
▁googles	-7720
▁hitting	-7721
▁hurting	-7722
▁incense	-7723
▁invited	-7724
▁january	-7725
▁joining	-7726
▁kingdom	-7727
▁moments	-7728
▁nervous	-7729
▁obesity	-7730
▁offered	-7731
▁payment	-7732
▁premier	-7733
▁primary	-7734
▁prototy	-7735
▁provide	-7736
▁pursuit	-7737
▁readers	-7738
▁recover	-7739
▁refugee	-7740
▁sexiest	-7741
▁shelter	-7742
▁smiling	-7743
▁spinoff	-7744
▁threats	-7745
▁toronto	-7746
▁traders	-7747
▁turning	-7748
▁unleash	-7749
▁updated	-7750
▁utensil	-7751
▁victims	-7752
▁viewers	-7753
▁windows	-7754
amination	-7755
▁Canadian	-7756
▁December	-7757
▁Oklahoma	-7758
▁Stanford	-7759
▁accounts	-7760
▁believed	-7761
▁believes	-7762
▁buffetts	-7763
▁buzzfeed	-7764
▁cellmate	-7765
▁clintons	-7766
▁cupboard	-7767
▁february	-7768
▁haircuts	-7769
▁hundreds	-7770
▁kindling	-7771
▁managers	-7772
▁missouri	-7773
▁multiple	-7774
▁obituary	-7775
▁overtime	-7776
▁overwhel	-7777
▁password	-7778
▁procrast	-7779
▁realizes	-7780
▁religion	-7781
▁shoppers	-7782
▁sinkhole	-7783
▁someones	-7784
▁stanford	-7785
▁sterling	-7786
▁teenager	-7787
▁tomatoes	-7788
▁worrying	-7789
perception	-7790
▁addresses	-7791
▁agreement	-7792
▁bombshell	-7793
▁celebrate	-7794
▁charlotte	-7795
▁committee	-7796
▁curiosity	-7797
▁detective	-7798
▁followers	-7799
▁furniture	-7800
▁headphone	-7801
▁influence	-7802
▁institute	-7803
▁introduce	-7804
▁johansson	-7805
▁laminitis	-7806
▁privilege	-7807
▁realistic	-7808
▁regularly	-7809
▁satellite	-7810
▁sensation	-7811
▁substance	-7812
▁surprises	-7813
▁unusually	-7814
▁wellbeing	-7815
▁accountant	-7816
▁associated	-7817
▁biological	-7818
▁complaints	-7819
▁interested	-7820
▁psychopath	-7821
▁statistics	-7822
▁straighten	-7823
refrigerator	-7824
▁financially	-7825
▁girlfriends	-7826
▁influential	-7827
▁neighborhood	-7828
▁oscarwinning	-7829
▁transformers	-7830
▁unfortunately	-7831
▁transportation	-7832
60	-7833
70	-7834
hs	-7835
rd	-7836
sc	-7837
tv	-7838
aby	-7839
ahl	-7840
ami	-7841
ati	-7842
cca	-7843
cts	-7844
eds	-7845
epo	-7846
fol	-7847
gre	-7848
ifi	-7849
iko	-7850
ios	-7851
ira	-7852
lan	-7853
lem	-7854
loy	-7855
mar	-7856
mma	-7857
odd	-7858
pay	-7859
pot	-7860
rad	-7861
tha	-7862
top	-7863
tos	-7864
uan	-7865
uda	-7866
uls	-7867
urd	-7868
wim	-7869
zes	-7870
▁00	-7871
▁45	-7872
▁55	-7873
▁73	-7874
▁Af	-7875
▁Em	-7876
▁Ty	-7877
▁eh	-7878
▁et	-7879
▁ff	-7880
▁fi	-7881
▁jr	-7882
▁oc	-7883
▁qb	-7884
▁wi	-7885
8001	-7886
alem	-7887
ands	-7888
anka	-7889
anto	-7890
avor	-7891
bees	-7892
boys	-7893
chin	-7894
drie	-7895
each	-7896
east	-7897
eden	-7898
enry	-7899
enth	-7900
erus	-7901
eryl	-7902
gory	-7903
hams	-7904
hill	-7905
igue	-7906
iles	-7907
imal	-7908
iphy	-7909
iral	-7910
irds	-7911
itle	-7912
ivia	-7913
jack	-7914
just	-7915
kast	-7916
kest	-7917
kish	-7918
lies	-7919
lock	-7920
long	-7921
mann	-7922
mass	-7923
mony	-7924
ofen	-7925
ongo	-7926
pers	-7927
pill	-7928
rani	-7929
raqi	-7930
raut	-7931
rock	-7932
roke	-7933
ryan	-7934
shop	-7935
tail	-7936
tegr	-7937
ucas	-7938
ulan	-7939
unis	-7940
urtz	-7941
usic	-7942
utee	-7943
wolf	-7944
yder	-7945
yson	-7946
zing	-7947
zzle	-7948
▁159	-7949
▁600	-7950
▁Atl	-7951
▁BAS	-7952
▁Mor	-7953
▁Oct	-7954
▁ads	-7955
▁arn	-7956
▁ful	-7957
▁gov	-7958
▁joa	-7959
▁kay	-7960
▁kne	-7961
▁lac	-7962
▁lau	-7963
▁mtv	-7964
▁nye	-7965
▁rit	-7966
▁rug	-7967
▁ske	-7968
▁swe	-7969
▁tie	-7970
▁ufc	-7971
▁unb	-7972
▁unn	-7973
▁vod	-7974
▁wax	-7975
▁wis	-7976
▁wtf	-7977
aches	-7978
akens	-7979
alian	-7980
ampms	-7981
amsay	-7982
andos	-7983
andra	-7984
antha	-7985
areth	-7986
assic	-7987
atter	-7988
batch	-7989
berry	-7990
cibly	-7991
cript	-7992
eline	-7993
enson	-7994
erent	-7995
famed	-7996
flife	-7997
front	-7998
garde	-7999
gings	-8000
iable	-8001
ichol	-8002
icing	-8003
iding	-8004
ingew	-8005
isher	-8006
lying	-8007
mates	-8008
neath	-8009
nings	-8010
ogram	-8011
oneys	-8012
ongue	-8013
onone	-8014
ornan	-8015
orney	-8016
panda	-8017
phant	-8018
place	-8019
power	-8020
pread	-8021
riani	-8022
ridge	-8023
shire	-8024
srael	-8025
ssing	-8026
strip	-8027
ulent	-8028
urate	-8029
verty	-8030
volit	-8031
warts	-8032
woman	-8033
world	-8034
▁1800	-8035
▁2050	-8036
▁5000	-8037
▁Gary	-8038
▁Gold	-8039
▁Thor	-8040
▁Todd	-8041
▁acid	-8042
▁asks	-8043
▁asse	-8044
▁aust	-8045
▁baff	-8046
▁bans	-8047
▁bark	-8048
▁beef	-8049
▁begg	-8050
▁boat	-8051
▁boys	-8052
▁bush	-8053
▁calm	-8054
▁cart	-8055
▁cbss	-8056
▁cens	-8057
▁chew	-8058
▁cock	-8059
▁cord	-8060
▁cuis	-8061
▁curt	-8062
▁dile	-8063
▁dome	-8064
▁dwts	-8065
▁exit	-8066
▁foul	-8067
▁fuel	-8068
▁gang	-8069
▁gary	-8070
▁gmos	-8071
▁gown	-8072
▁gran	-8073
▁indi	-8074
▁josh	-8075
▁junk	-8076
▁krav	-8077
▁melt	-8078
▁musk	-8079
▁naij	-8080
▁neut	-8081
▁nipp	-8082
▁noam	-8083
▁nots	-8084
▁nuts	-8085
▁oped	-8086
▁pant	-8087
▁pill	-8088
▁plot	-8089
▁pole	-8090
▁pony	-8091
▁rebe	-8092
▁reck	-8093
▁rice	-8094
▁rude	-8095
▁sept	-8096
▁shak	-8097
▁sund	-8098
▁tast	-8099
▁thro	-8100
▁tony	-8101
▁trun	-8102
▁twil	-8103
▁ugly	-8104
▁vent	-8105
▁viet	-8106
▁zara	-8107
▁zone	-8108
approp	-8109
ceries	-8110
elight	-8111
employ	-8112
enders	-8113
enight	-8114
ereoty	-8115
ernail	-8116
fourth	-8117
giving	-8118
gregor	-8119
iffany	-8120
ighton	-8121
inding	-8122
linder	-8123
onardo	-8124
orette	-8125
pillar	-8126
rabble	-8127
rength	-8128
system	-8129
talian	-8130
ulated	-8131
ushing	-8132
▁42000	-8133
▁Bryan	-8134
▁Jesus	-8135
▁Tyler	-8136
▁agent	-8137
▁alist	-8138
▁appet	-8139
▁aquar	-8140
▁atroc	-8141
▁avant	-8142
▁bacon	-8143
▁barri	-8144
▁berry	-8145
▁brace	-8146
▁brick	-8147
▁bride	-8148
▁bryan	-8149
▁burns	-8150
▁canal	-8151
▁chaos	-8152
▁cheer	-8153
▁chron	-8154
▁cider	-8155
▁clues	-8156
▁coast	-8157
▁colin	-8158
▁colon	-8159
▁conor	-8160
▁couch	-8161
▁decis	-8162
▁detox	-8163
▁dimon	-8164
▁disag	-8165
▁drama	-8166
▁drone	-8167
▁drops	-8168
▁dumps	-8169
▁eyepo	-8170
▁ferre	-8171
▁float	-8172
▁fooda	-8173
▁freed	-8174
▁giphy	-8175
▁heads	-8176
▁henry	-8177
▁hiker	-8178
▁incub	-8179
▁indic	-8180
▁intim	-8181
▁intri	-8182
▁iosco	-8183
▁jenny	-8184
▁jerry	-8185
▁knife	-8186
▁kumar	-8187
▁kunis	-8188
▁kurtz	-8189
▁laser	-8190
▁layer	-8191
▁lease	-8192
▁lovin	-8193
▁maint	-8194
▁malik	-8195
▁marco	-8196
▁melan	-8197
▁milky	-8198
▁mulan	-8199
▁musca	-8200
▁myths	-8201
▁nurse	-8202
▁olive	-8203
▁panda	-8204
▁parts	-8205
▁pharm	-8206
▁pills	-8207
▁popup	-8208
▁punch	-8209
▁retal	-8210
▁rogen	-8211
▁saggy	-8212
▁seats	-8213
▁shame	-8214
▁sites	-8215
▁slams	-8216
▁sochi	-8217
▁solar	-8218
▁spont	-8219
▁stack	-8220
▁stacy	-8221
▁steep	-8222
▁stool	-8223
▁swear	-8224
▁synth	-8225
▁thumb	-8226
▁twoth	-8227
▁tyler	-8228
▁valve	-8229
▁walks	-8230
▁wides	-8231
▁wound	-8232
akistan	-8233
chester	-8234
control	-8235
credits	-8236
editing	-8237
growing	-8238
mission	-8239
ontroll	-8240
ourneau	-8241
related	-8242
stimate	-8243
telling	-8244
uations	-8245
urassic	-8246
warming	-8247
▁998001	-8248
▁Jewish	-8249
▁Rivera	-8250
▁Warren	-8251
▁accomp	-8252
▁adeles	-8253
▁affair	-8254
▁andrea	-8255
▁barbie	-8256
▁bethes	-8257
▁binary	-8258
▁bodies	-8259
▁boston	-8260
▁browns	-8261
▁camper	-8262
▁carrie	-8263
▁caused	-8264
▁childs	-8265
▁cleans	-8266
▁closed	-8267
▁colors	-8268
▁comics	-8269
▁costar	-8270
▁cowell	-8271
▁crimes	-8272
▁dadbod	-8273
▁debunk	-8274
▁devour	-8275
▁digest	-8276
▁discus	-8277
▁dismay	-8278
▁dornan	-8279
▁dragon	-8280
▁easter	-8281
▁epipen	-8282
▁evolve	-8283
▁explan	-8284
▁eyelid	-8285
▁faster	-8286
▁flavor	-8287
▁forces	-8288
▁fruits	-8289
▁gareth	-8290
▁ginger	-8291
▁harder	-8292
▁hiking	-8293
▁howard	-8294
▁inform	-8295
▁insomn	-8296
▁jewish	-8297
▁lakers	-8298
▁lawyer	-8299
▁locate	-8300
▁lowcut	-8301
▁mampms	-8302
▁manual	-8303
▁margin	-8304
▁margot	-8305
▁mariah	-8306
▁martin	-8307
▁millie	-8308
▁mindbl	-8309
▁morbid	-8310
▁mostly	-8311
▁nandos	-8312
▁napkin	-8313
▁negoti	-8314
▁nichol	-8315
▁normal	-8316
▁nugent	-8317
▁olivia	-8318
▁orphan	-8319
▁oxford	-8320
▁patent	-8321
▁paypal	-8322
▁pieces	-8323
▁plants	-8324
▁poison	-8325
▁poster	-8326
▁promot	-8327
▁pulled	-8328
▁racism	-8329
▁raised	-8330
▁ramsay	-8331
▁rarely	-8332
▁recall	-8333
▁regard	-8334
▁remedy	-8335
▁ripped	-8336
▁ritual	-8337
▁salary	-8338
▁saward	-8339
▁scared	-8340
▁schwim	-8341
▁serves	-8342
▁shield	-8343
▁smoker	-8344
▁snyder	-8345
▁sodium	-8346
▁spoken	-8347
▁staple	-8348
▁subtle	-8349
▁surviv	-8350
▁swifts	-8351
▁tactic	-8352
▁tebows	-8353
▁theyll	-8354
▁tongue	-8355
▁transl	-8356
▁unborn	-8357
▁videos	-8358
▁wilder	-8359
▁writes	-8360
National	-8361
aternity	-8362
audience	-8363
erusalem	-8364
guzzling	-8365
ignation	-8366
material	-8367
oscience	-8368
quarters	-8369
toschool	-8370
volitans	-8371
▁Douglas	-8372
▁October	-8373
▁african	-8374
▁allison	-8375
▁alumnus	-8376
▁amputee	-8377
▁analyst	-8378
▁aniston	-8379
▁antonio	-8380
▁arizona	-8381
▁arsenal	-8382
▁avoided	-8383
▁awakens	-8384
▁balance	-8385
▁banning	-8386
▁barneys	-8387
▁biebers	-8388
▁brewing	-8389
▁cabinet	-8390
▁carlson	-8391
▁chapter	-8392
▁chemist	-8393
▁chronic	-8394
▁clothes	-8395
▁costing	-8396
▁cowboys	-8397
▁crushed	-8398
▁deficit	-8399
▁denture	-8400
▁despair	-8401
▁dilemma	-8402
▁dismiss	-8403
▁display	-8404
▁douglas	-8405
▁entitle	-8406
▁failing	-8407
▁fascism	-8408
▁fatigue	-8409
▁florist	-8410
▁footing	-8411
▁freddie	-8412
▁georges	-8413
▁goldman	-8414
▁grammar	-8415
▁gymnast	-8416
▁helpful	-8417
▁introdu	-8418
▁ironing	-8419
▁italian	-8420
▁kristen	-8421
▁madonna	-8422
▁mandela	-8423
▁matches	-8424
▁midlife	-8425
▁mocking	-8426
▁nurofen	-8427
▁outkast	-8428
▁planned	-8429
▁poppins	-8430
▁poverty	-8431
▁prepare	-8432
▁raising	-8433
▁records	-8434
▁removes	-8435
▁rescued	-8436
▁retreat	-8437
▁retweet	-8438
▁reuters	-8439
▁reviews	-8440
▁skyscra	-8441
▁snowden	-8442
▁stewart	-8443
▁suspend	-8444
▁ugliest	-8445
▁unbreak	-8446
▁undergo	-8447
▁unident	-8448
▁viewing	-8449
▁village	-8450
▁violent	-8451
▁virtual	-8452
▁warrior	-8453
▁weirdly	-8454
▁wingard	-8455
▁worried	-8456
▁yearold	-8457
▁zealand	-8458
intuitive	-8459
something	-8460
ventional	-8461
▁adoption	-8462
▁airlines	-8463
▁airports	-8464
▁anistons	-8465
▁aquarium	-8466
▁athletic	-8467
▁attacked	-8468
▁aviation	-8469
▁beverage	-8470
▁bleeding	-8471
▁boarding	-8472
▁brothers	-8473
▁cheating	-8474
▁covering	-8475
▁coworker	-8476
▁cultural	-8477
▁cylinder	-8478
▁degrasse	-8479
▁district	-8480
▁dominant	-8481
▁downside	-8482
▁dressing	-8483
▁elephant	-8484
▁forcibly	-8485
▁fulltime	-8486
▁governor	-8487
▁grimmies	-8488
▁halflife	-8489
▁harbaugh	-8490
▁hilarity	-8491
▁hogwarts	-8492
▁homemade	-8493
▁inapprop	-8494
▁invented	-8495
▁kentucky	-8496
▁magician	-8497
▁mcgregor	-8498
▁newborns	-8499
▁oneonone	-8500
▁overdose	-8501
▁overlook	-8502
▁particip	-8503
▁patriots	-8504
▁playlist	-8505
▁playmate	-8506
▁progress	-8507
▁prospect	-8508
▁relative	-8509
▁rihannas	-8510
▁ripening	-8511
▁rockstar	-8512
▁samantha	-8513
▁schedule	-8514
▁scrabble	-8515
▁seinfeld	-8516
▁sidewalk	-8517
▁smuggler	-8518
▁soldiers	-8519
▁specific	-8520
▁starring	-8521
▁stereoty	-8522
▁stickers	-8523
▁strength	-8524
▁theories	-8525
▁treasure	-8526
▁trending	-8527
▁twilight	-8528
▁unemploy	-8529
▁vicinity	-8530
▁waitress	-8531
▁zendayas	-8532
entionally	-8533
▁180000000	-8534
▁Brazilian	-8535
▁Charlotte	-8536
▁Christian	-8537
▁advantage	-8538
▁anonymity	-8539
▁applebees	-8540
▁australia	-8541
▁badgering	-8542
▁cancelled	-8543
▁cleveland	-8544
▁composure	-8545
▁developed	-8546
▁economics	-8547
▁estimated	-8548
▁expecting	-8549
▁extrovert	-8550
▁flipboard	-8551
▁foreigner	-8552
▁glamorous	-8553
▁groceries	-8554
▁headaches	-8555
▁inaugural	-8556
▁latenight	-8557
▁lawmakers	-8558
▁lifestyle	-8559
▁limelight	-8560
▁metallica	-8561
▁neighbors	-8562
▁nicholson	-8563
▁nintendos	-8564
▁operation	-8565
▁painfully	-8566
▁parenting	-8567
▁portrayal	-8568
▁rejection	-8569
▁relatives	-8570
▁signature	-8571
▁sociopath	-8572
▁spielberg	-8573
▁standards	-8574
▁suffering	-8575
▁swallowed	-8576
▁synthetic	-8577
▁terrorism	-8578
▁twothirds	-8579
▁uncovered	-8580
▁waterfall	-8581
▁wolverine	-8582
▁activision	-8583
▁adaptation	-8584
▁appreciate	-8585
▁attraction	-8586
▁beachgoers	-8587
▁earthquake	-8588
▁elementary	-8589
▁exhibition	-8590
▁eyepopping	-8591
▁fingernail	-8592
▁flashlight	-8593
▁fleshiness	-8594
▁glutenfree	-8595
▁harassment	-8596
▁industrial	-8597
▁journalism	-8598
▁letourneau	-8599
▁microphone	-8600
▁nationwide	-8601
▁outrageous	-8602
▁perception	-8603
▁phenomenon	-8604
▁production	-8605
▁punishment	-8606
▁regulation	-8607
▁remarkable	-8608
▁researcher	-8609
▁somethings	-8610
▁strategies	-8611
▁transcript	-8612
▁uncontroll	-8613
▁underneath	-8614
▁underrated	-8615
▁waterproof	-8616
▁weightloss	-8617
▁widespread	-8618
▁anticipated	-8619
▁catastrophe	-8620
▁caterpillar	-8621
▁collaborate	-8622
▁cumberbatch	-8623
▁differently	-8624
▁drastically	-8625
▁experiences	-8626
▁intelligent	-8627
▁investigate	-8628
▁malfunction	-8629
▁millionaire	-8630
▁mythbusters	-8631
▁postcredits	-8632
▁recruitment	-8633
▁replacement	-8634
▁retaliation	-8635
▁spontaneous	-8636
▁unbreakable	-8637
▁archeologist	-8638
▁bachelorette	-8639
▁backtoschool	-8640
▁construction	-8641
▁heartwarming	-8642
▁inauguration	-8643
▁legalization	-8644
▁lifechanging	-8645
▁mathematical	-8646
▁pennsylvania	-8647
▁ridiculously	-8648
▁storytelling	-8649
▁successfully	-8650
▁surprisingly	-8651
▁unidentified	-8652
millionyearold	-8653
▁homosexuality	-8654
▁inappropriate	-8655
▁intentionally	-8656
▁relationships	-8657
▁underestimate	-8658
▁scientifically	-8659
aq	-8660
cC	-8661
ds	-8662
fw	-8663
fy	-8664
hl	-8665
yl	-8666
▁U	-8667
Car	-8668
abs	-8669
ags	-8670
ala	-8671
asm	-8672
avo	-8673
big	-8674
bul	-8675
cip	-8676
ero	-8677
fat	-8678
fif	-8679
fle	-8680
hag	-8681
hem	-8682
iqu	-8683
itb	-8684
law	-8685
len	-8686
lig	-8687
mod	-8688
olt	-8689
rec	-8690
rim	-8691
rys	-8692
squ	-8693
tex	-8694
tim	-8695
zel	-8696
zod	-8697
▁41	-8698
▁43	-8699
▁52	-8700
▁93	-8701
▁dy	-8702
▁jp	-8703
▁lu	-8704
▁nc	-8705
▁uv	-8706
▁ww	-8707
abit	-8708
aded	-8709
aile	-8710
away	-8711
bill	-8712
cers	-8713
cobs	-8714
conn	-8715
cook	-8716
emin	-8717
enda	-8718
ewis	-8719
ffle	-8720
fing	-8721
inct	-8722
isen	-8723
lash	-8724
ofts	-8725
oral	-8726
oses	-8727
ouch	-8728
pack	-8729
plex	-8730
rank	-8731
rets	-8732
roma	-8733
shot	-8734
ugal	-8735
umes	-8736
urns	-8737
vors	-8738
wall	-8739
west	-8740
▁180	-8741
▁Ate	-8742
▁Cle	-8743
▁Jun	-8744
▁McC	-8745
▁Ted	-8746
▁bog	-8747
▁dot	-8748
▁dye	-8749
▁elf	-8750
▁ell	-8751
▁gag	-8752
▁gos	-8753
▁gul	-8754
▁hat	-8755
▁iam	-8756
▁inh	-8757
▁kin	-8758
▁lav	-8759
▁lol	-8760
▁loy	-8761
▁lyr	-8762
▁mcu	-8763
▁meg	-8764
▁owe	-8765
▁pas	-8766
▁raw	-8767
▁rey	-8768
▁rol	-8769
▁rus	-8770
▁sor	-8771
▁tro	-8772
▁unt	-8773
▁wet	-8774
▁yel	-8775
▁zac	-8776
▁zoe	-8777
abled	-8778
adesh	-8779
ainty	-8780
aited	-8781
altim	-8782
ansas	-8783
arton	-8784
daily	-8785
eneck	-8786
erkat	-8787
erner	-8788
favor	-8789
fever	-8790
ghten	-8791
gment	-8792
heads	-8793
illed	-8794
itzer	-8795
ority	-8796
orthy	-8797
peace	-8798
pherd	-8799
prise	-8800
rical	-8801
rolls	-8802
stasy	-8803
sters	-8804
terly	-8805
uador	-8806
uries	-8807
▁2008	-8808
▁Cent	-8809
▁Harr	-8810
▁Mass	-8811
▁Nazi	-8812
▁Ross	-8813
▁airs	-8814
▁bars	-8815
▁bent	-8816
▁bigg	-8817
▁brus	-8818
▁clap	-8819
▁cows	-8820
▁crus	-8821
▁damp	-8822
▁defe	-8823
▁dian	-8824
▁diss	-8825
▁edge	-8826
▁feet	-8827
▁fury	-8828
▁gent	-8829
▁glee	-8830
▁glim	-8831
▁hunt	-8832
▁iraq	-8833
▁kell	-8834
▁kimk	-8835
▁lara	-8836
▁lond	-8837
▁mare	-8838
▁memo	-8839
▁mini	-8840
▁mood	-8841
▁odds	-8842
▁pays	-8843
▁peer	-8844
▁phos	-8845
▁pred	-8846
▁repe	-8847
▁sock	-8848
▁sore	-8849
▁sult	-8850
▁tail	-8851
▁veep	-8852
▁wave	-8853
▁waze	-8854
▁whom	-8855
aining	-8856
better	-8857
conven	-8858
cooked	-8859
ennedy	-8860
estine	-8861
idency	-8862
ightly	-8863
inkles	-8864
itbart	-8865
making	-8866
ouston	-8867
resist	-8868
second	-8869
unting	-8870
ussize	-8871
velope	-8872
zodiac	-8873
▁10000	-8874
▁Bible	-8875
▁Brook	-8876
▁Burns	-8877
▁Latin	-8878
▁Lewis	-8879
▁Miami	-8880
▁Simon	-8881
▁affle	-8882
▁agony	-8883
▁april	-8884
▁areas	-8885
▁aroma	-8886
▁asian	-8887
▁beats	-8888
▁bible	-8889
▁blake	-8890
▁boxes	-8891
▁brows	-8892
▁buffy	-8893
▁carol	-8894
▁chavo	-8895
▁cinem	-8896
▁climb	-8897
▁cohen	-8898
▁concl	-8899
▁creek	-8900
▁davis	-8901
▁dough	-8902
▁efron	-8903
▁equip	-8904
▁faces	-8905
▁fairy	-8906
▁faith	-8907
▁false	-8908
▁fence	-8909
▁files	-8910
▁gloss	-8911
▁grown	-8912
▁guide	-8913
▁handy	-8914
▁hanks	-8915
▁hello	-8916
▁highs	-8917
▁hired	-8918
▁huffy	-8919
▁idiot	-8920
▁insid	-8921
▁irons	-8922
▁jonas	-8923
▁leads	-8924
▁lions	-8925
▁minds	-8926
▁motor	-8927
▁natur	-8928
▁notes	-8929
▁occas	-8930
▁oklah	-8931
▁olsen	-8932
▁pages	-8933
▁plays	-8934
▁posed	-8935
▁poses	-8936
▁reass	-8937
▁rider	-8938
▁rocks	-8939
▁roger	-8940
▁santa	-8941
▁shake	-8942
▁shown	-8943
▁silly	-8944
▁slice	-8945
▁slide	-8946
▁snore	-8947
▁snows	-8948
▁songs	-8949
▁spike	-8950
▁spoil	-8951
▁tacky	-8952
▁trash	-8953
▁tumor	-8954
▁turtl	-8955
▁upset	-8956
▁whack	-8957
▁witch	-8958
ability	-8959
branded	-8960
ductive	-8961
element	-8962
odymium	-8963
selling	-8964
umption	-8965
utation	-8966
▁Bikini	-8967
▁Calvin	-8968
▁Canada	-8969
▁German	-8970
▁Junior	-8971
▁Martin	-8972
▁afghan	-8973
▁agenda	-8974
▁anthem	-8975
▁archae	-8976
▁blonde	-8977
▁border	-8978
▁brains	-8979
▁brides	-8980
▁broken	-8981
▁brooks	-8982
▁calvin	-8983
▁carbon	-8984
▁chains	-8985
▁clinic	-8986
▁closet	-8987
▁cookie	-8988
▁cutest	-8989
▁dainty	-8990
▁deputy	-8991
▁diving	-8992
▁edward	-8993
▁effica	-8994
▁emojis	-8995
▁exgirl	-8996
▁explos	-8997
▁fabric	-8998
▁farmer	-8999
▁fascin	-9000
▁garner	-9001
▁hacked	-9002
▁harbor	-9003
▁humble	-9004
▁hungry	-9005
▁ignore	-9006
▁illust	-9007
▁imagin	-9008
▁injure	-9009
▁insult	-9010
▁intend	-9011
▁lately	-9012
▁laying	-9013
▁learns	-9014
▁liquor	-9015
▁lochte	-9016
▁lonely	-9017
▁loving	-9018
▁lowest	-9019
▁metrop	-9020
▁nelson	-9021
▁nevada	-9022
▁openly	-9023
▁paraly	-9024
▁philos	-9025
▁phones	-9026
▁pilots	-9027
▁python	-9028
▁quotes	-9029
▁raises	-9030
▁rating	-9031
▁rebell	-9032
▁revamp	-9033
▁rivera	-9034
▁runner	-9035
▁salman	-9036
▁sandra	-9037
▁scenes	-9038
▁signed	-9039
▁spaces	-9040
▁spears	-9041
▁teases	-9042
▁throat	-9043
▁tipper	-9044
▁tricks	-9045
▁turner	-9046
▁ultrav	-9047
▁werent	-9048
▁whites	-9049
▁yellow	-9050
▁yields	-9051
Carolina	-9052
altimore	-9053
mannered	-9054
onscious	-9055
pectedly	-9056
platform	-9057
ulations	-9058
ximately	-9059
▁appears	-9060
▁appoint	-9061
▁atlanta	-9062
▁barrier	-9063
▁beneath	-9064
▁blunder	-9065
▁brandon	-9066
▁bullock	-9067
▁buttons	-9068
▁cabaret	-9069
▁cameras	-9070
▁claimed	-9071
▁command	-9072
▁compete	-9073
▁contemp	-9074
▁convict	-9075
▁coolest	-9076
▁corrupt	-9077
▁crashes	-9078
▁credits	-9079
▁cuisine	-9080
▁dollars	-9081
▁ecstasy	-9082
▁escaped	-9083
▁exposed	-9084
▁figures	-9085
▁georgia	-9086
▁glitter	-9087
▁grilled	-9088
▁hawking	-9089
▁jackson	-9090
▁londons	-9091
▁lurking	-9092
▁mansion	-9093
▁melissa	-9094
▁perplex	-9095
▁posttra	-9096
▁promote	-9097
▁railway	-9098
▁recipes	-9099
▁recycle	-9100
▁refuses	-9101
▁regrets	-9102
▁roberts	-9103
▁roundup	-9104
▁scholar	-9105
▁seaport	-9106
▁seeking	-9107
▁selfish	-9108
▁slammed	-9109
▁sneaker	-9110
▁sources	-9111
▁spencer	-9112
▁suppose	-9113
▁trapped	-9114
▁utterly	-9115
▁vietnam	-9116
▁willing	-9117
▁yearend	-9118
boyfriend	-9119
▁backlash	-9120
▁boundary	-9121
▁britains	-9122
▁cardigan	-9123
▁carefree	-9124
▁coloring	-9125
▁compared	-9126
▁contract	-9127
▁cravings	-9128
▁defender	-9129
▁delivers	-9130
▁envelope	-9131
▁eternity	-9132
▁frighten	-9133
▁generous	-9134
▁hardware	-9135
▁illusion	-9136
▁inconven	-9137
▁infamous	-9138
▁infinite	-9139
▁infinity	-9140
▁invasive	-9141
▁involved	-9142
▁irresist	-9143
▁jillette	-9144
▁lawmaker	-9145
▁massacre	-9146
▁mountain	-9147
▁oklahoma	-9148
▁partners	-9149
▁pictures	-9150
▁plussize	-9151
▁profiles	-9152
▁proposed	-9153
▁protests	-9154
▁removing	-9155
▁required	-9156
▁retailer	-9157
▁sexually	-9158
▁shepherd	-9159
▁shoulder	-9160
▁speakers	-9161
▁speaking	-9162
▁starting	-9163
▁stealing	-9164
▁targeted	-9165
▁teaching	-9166
▁traveler	-9167
▁visiting	-9168
▁warriors	-9169
▁weddings	-9170
▁welcomes	-9171
hilippines	-9172
▁Barrymore	-9173
▁Cleveland	-9174
▁McCartney	-9175
▁accessory	-9176
▁anonymous	-9177
▁barrymore	-9178
▁bathrooms	-9179
▁breitbart	-9180
▁caressing	-9181
▁cinematic	-9182
▁combatant	-9183
▁diagnosed	-9184
▁dinosaurs	-9185
▁exception	-9186
▁excessive	-9187
▁guitarist	-9188
▁harington	-9189
▁honeymoon	-9190
▁immigrant	-9191
▁naturally	-9192
▁performer	-9193
▁producers	-9194
▁quotation	-9195
▁searching	-9196
▁seemingly	-9197
▁sentenced	-9198
▁shrinking	-9199
▁sparkling	-9200
▁streaming	-9201
▁superstar	-9202
▁suspected	-9203
▁teenagers	-9204
▁terrified	-9205
▁celebrates	-9206
▁challenges	-9207
▁charitable	-9208
▁enterprise	-9209
▁graduation	-9210
▁healthiest	-9211
▁johanssons	-9212
▁kimkardash	-9213
▁meditation	-9214
▁microsofts	-9215
▁pedestrian	-9216
▁permission	-9217
▁prediction	-9218
▁prosthetic	-9219
▁protestors	-9220
▁recipients	-9221
▁shockingly	-9222
▁situations	-9223
▁thankfully	-9224
▁thirdparty	-9225
▁turtleneck	-9226
▁undercover	-9227
▁accelerator	-9228
▁authorities	-9229
▁bestselling	-9230
▁broadcaster	-9231
▁calculation	-9232
▁communicate	-9233
▁consumption	-9234
▁declination	-9235
▁devastating	-9236
▁effectively	-9237
▁experienced	-9238
▁fascinating	-9239
▁hospitalize	-9240
▁improvement	-9241
▁philippines	-9242
▁photographs	-9243
▁possibility	-9244
▁ultraviolet	-9245
▁unfortunate	-9246
▁anticipation	-9247
▁civilization	-9248
▁entrepreneur	-9249
▁exgirlfriend	-9250
▁headquarters	-9251
▁hospitalized	-9252
▁productivity	-9253
▁unexpectedly	-9254
▁Massachusetts	-9255
▁approximately	-9256
▁crossplatform	-9257
▁efficaciously	-9258
▁massachusetts	-9259
▁posttraumatic	-9260
▁archaeologists	-9261
▁representative	-9262
19	-9263
24	-9264
25	-9265
35	-9266
75	-9267
90	-9268
aa	-9269
bn	-9270
hu	-9271
js	-9272
oh	-9273
pi	-9274
pv	-9275
qa	-9276
vs	-9277
zm	-9278
Cla	-9279
ali	-9280
amy	-9281
ask	-9282
bah	-9283
bil	-9284
bow	-9285
caa	-9286
can	-9287
cha	-9288
cky	-9289
cot	-9290
eld	-9291
elg	-9292
era	-9293
foe	-9294
fto	-9295
gca	-9296
gio	-9297
gom	-9298
gum	-9299
gyn	-9300
had	-9301
haq	-9302
hia	-9303
hop	-9304
hra	-9305
hub	-9306
hus	-9307
inc	-9308
inh	-9309
iol	-9310
itr	-9311
iza	-9312
lar	-9313
loc	-9314
lom	-9315
low	-9316
max	-9317
may	-9318
mic	-9319
nbc	-9320
nel	-9321
oca	-9322
oda	-9323
oir	-9324
olo	-9325
oot	-9326
orr	-9327
owa	-9328
ran	-9329
rie	-9330
rin	-9331
rub	-9332
rue	-9333
thr	-9334
uct	-9335
uds	-9336
vid	-9337
xia	-9338
yon	-9339
zzy	-9340
▁47	-9341
▁51	-9342
▁74	-9343
▁Cr	-9344
▁Gu	-9345
▁Lu	-9346
▁Ox	-9347
▁gf	-9348
▁md	-9349
▁oz	-9350
▁pb	-9351
▁pf	-9352
▁ry	-9353
▁ud	-9354
▁um	-9355
acam	-9356
acru	-9357
adun	-9358
agel	-9359
anao	-9360
anex	-9361
anke	-9362
aque	-9363
ardt	-9364
aroo	-9365
athe	-9366
atri	-9367
avan	-9368
avey	-9369
ayed	-9370
boro	-9371
bral	-9372
burg	-9373
caly	-9374
cane	-9375
coil	-9376
coln	-9377
cond	-9378
cope	-9379
ctal	-9380
ctic	-9381
dale	-9382
deik	-9383
dups	-9384
eder	-9385
eens	-9386
elda	-9387
elry	-9388
emum	-9389
eney	-9390
erto	-9391
esis	-9392
ests	-9393
evit	-9394
gens	-9395
gins	-9396
grat	-9397
hire	-9398
hold	-9399
ibbe	-9400
iche	-9401
icop	-9402
idas	-9403
ikin	-9404
ilda	-9405
illa	-9406
ilyn	-9407
indy	-9408
inky	-9409
insp	-9410
inst	-9411
ione	-9412
ismo	-9413
iter	-9414
itut	-9415
ivid	-9416
leis	-9417
liam	-9418
make	-9419
odox	-9420
oilo	-9421
okel	-9422
onis	-9423
ooki	-9424
oria	-9425
ovsk	-9426
owsy	-9427
paid	-9428
peed	-9429
pere	-9430
pool	-9431
quer	-9432
rary	-9433
raul	-9434
rily	-9435
ryff	-9436
seid	-9437
slin	-9438
sons	-9439
span	-9440
stro	-9441
stud	-9442
tobe	-9443
udge	-9444
ught	-9445
uray	-9446
will	-9447
witz	-9448
xbox	-9449
▁165	-9450
▁247	-9451
▁256	-9452
▁323	-9453
▁330	-9454
▁Gre	-9455
▁Hay	-9456
▁Mat	-9457
▁Mel	-9458
▁Mur	-9459
▁Nig	-9460
▁Wil	-9461
▁aft	-9462
▁alg	-9463
▁amb	-9464
▁apo	-9465
▁bor	-9466
▁bum	-9467
▁cel	-9468
▁cot	-9469
▁cuc	-9470
▁cus	-9471
▁ens	-9472
▁fad	-9473
▁fav	-9474
▁ffc	-9475
▁fue	-9476
▁gad	-9477
▁ger	-9478
▁gir	-9479
▁goo	-9480
▁gum	-9481
▁hob	-9482
▁hpv	-9483
▁isp	-9484
▁jed	-9485
▁kap	-9486
▁kfc	-9487
▁kle	-9488
▁lap	-9489
▁las	-9490
▁lil	-9491
▁mit	-9492
▁nag	-9493
▁nes	-9494
▁nhl	-9495
▁nig	-9496
▁nyt	-9497
▁obt	-9498
▁pee	-9499
▁pim	-9500
▁pod	-9501
▁pow	-9502
▁ppi	-9503
▁ris	-9504
▁scr	-9505
▁sht	-9506
▁sie	-9507
▁sin	-9508
▁sir	-9509
▁sle	-9510
▁thi	-9511
▁tid	-9512
▁tol	-9513
▁tow	-9514
▁tsa	-9515
▁vhs	-9516
▁vom	-9517
▁wre	-9518
▁yam	-9519
Claus	-9520
acher	-9521
advis	-9522
agent	-9523
amine	-9524
ancou	-9525
anged	-9526
anyas	-9527
aphor	-9528
apped	-9529
arrot	-9530
asium	-9531
avily	-9532
bahul	-9533
bebig	-9534
berly	-9535
bilog	-9536
burys	-9537
chair	-9538
check	-9539
cheon	-9540
chers	-9541
chrys	-9542
class	-9543
crest	-9544
ctose	-9545
decky	-9546
dogan	-9547
ehner	-9548
eland	-9549
emale	-9550
endys	-9551
ennai	-9552
ermit	-9553
erves	-9554
ethis	-9555
eving	-9556
ewest	-9557
forts	-9558
found	-9559
gesic	-9560
ghazi	-9561
giver	-9562
green	-9563
hadow	-9564
heres	-9565
iancé	-9566
ibler	-9567
ience	-9568
ieval	-9569
igail	-9570
ingen	-9571
ished	-9572
isman	-9573
istle	-9574
leans	-9575
lined	-9576
meter	-9577
mione	-9578
obile	-9579
onium	-9580
oping	-9581
otsie	-9582
ougat	-9583
pants	-9584
ppist	-9585
rency	-9586
ricia	-9587
ritis	-9588
santo	-9589
spass	-9590
stine	-9591
stons	-9592
stops	-9593
thals	-9594
umble	-9595
unich	-9596
usage	-9597
uslim	-9598
verts	-9599
voice	-9600
▁1500	-9601
▁1955	-9602
▁1982	-9603
▁1989	-9604
▁1997	-9605
▁1999	-9606
▁2009	-9607
▁2025	-9608
▁7500	-9609
▁Beat	-9610
▁Emmy	-9611
▁Geor	-9612
▁Hunt	-9613
▁Sher	-9614
▁Thom	-9615
▁alph	-9616
▁andy	-9617
▁aren	-9618
▁arya	-9619
▁berg	-9620
▁beta	-9621
▁boil	-9622
▁bone	-9623
▁bros	-9624
▁butt	-9625
▁cape	-9626
▁capp	-9627
▁ceos	-9628
▁cerv	-9629
▁cher	-9630
▁chug	-9631
▁clog	-9632
▁crut	-9633
▁cube	-9634
▁cubs	-9635
▁curb	-9636
▁curs	-9637
▁daza	-9638
▁dems	-9639
▁dgca	-9640
▁ding	-9641
▁doug	-9642
▁dray	-9643
▁drog	-9644
▁ease	-9645
▁echo	-9646
▁elis	-9647
▁erup	-9648
▁estr	-9649
▁eval	-9650
▁faux	-9651
▁fern	-9652
▁fifa	-9653
▁fitz	-9654
▁fold	-9655
▁fred	-9656
▁fulf	-9657
▁gest	-9658
▁gill	-9659
▁glen	-9660
▁glor	-9661
▁goss	-9662
▁gulp	-9663
▁gunn	-9664
▁guzm	-9665
▁haze	-9666
▁heck	-9667
▁horn	-9668
▁idol	-9669
▁info	-9670
▁jarm	-9671
▁jong	-9672
▁jovi	-9673
▁june	-9674
▁jury	-9675
▁kang	-9676
▁katt	-9677
▁knee	-9678
▁knot	-9679
▁kpop	-9680
▁kyle	-9681
▁laug	-9682
▁laut	-9683
▁lazy	-9684
▁lean	-9685
▁leno	-9686
▁lewd	-9687
▁libr	-9688
▁lind	-9689
▁lith	-9690
▁loft	-9691
▁lois	-9692
▁lots	-9693
▁lung	-9694
▁lyft	-9695
▁lynn	-9696
▁madd	-9697
▁malt	-9698
▁maru	-9699
▁mask	-9700
▁mens	-9701
▁mila	-9702
▁modi	-9703
▁molt	-9704
▁mull	-9705
▁nazi	-9706
▁ncaa	-9707
▁nond	-9708
▁nsfw	-9709
▁ocul	-9710
▁pave	-9711
▁peta	-9712
▁pies	-9713
▁plut	-9714
▁poet	-9715
▁prat	-9716
▁rejo	-9717
▁ridd	-9718
▁ride	-9719
▁rite	-9720
▁rosh	-9721
▁scam	-9722
▁seas	-9723
▁seed	-9724
▁slim	-9725
▁slot	-9726
▁soba	-9727
▁sole	-9728
▁sony	-9729
▁soul	-9730
▁tent	-9731
▁tuck	-9732
▁tune	-9733
▁unne	-9734
▁vamp	-9735
▁vmax	-9736
▁watt	-9737
▁whis	-9738
▁wiig	-9739
▁woah	-9740
aching	-9741
acrush	-9742
amesex	-9743
apolis	-9744
aptist	-9745
arctic	-9746
ashore	-9747
atable	-9748
bonate	-9749
bottom	-9750
called	-9751
caneat	-9752
chevel	-9753
church	-9754
consin	-9755
ctuary	-9756
deikis	-9757
derall	-9758
elling	-9759
erline	-9760
ersons	-9761
ertags	-9762
etchup	-9763
factor	-9764
gomery	-9765
icanha	-9766
icular	-9767
ileaks	-9768
income	-9769
ipping	-9770
irstie	-9771
issipp	-9772
itchat	-9773
itrump	-9774
khardt	-9775
kinson	-9776
letter	-9777
nesota	-9778
ocaust	-9779
ociate	-9780
olitan	-9781
omeday	-9782
paying	-9783
phorus	-9784
phosis	-9785
player	-9786
raiser	-9787
rality	-9788
raulic	-9789
reddit	-9790
reland	-9791
ricane	-9792
stakes	-9793
terest	-9794
▁30000	-9795
▁Asian	-9796
▁Crown	-9797
▁Gates	-9798
▁Moore	-9799
▁Santa	-9800
▁Sarah	-9801
▁Smith	-9802
▁Wales	-9803
▁advoc	-9804
▁afoot	-9805
▁aging	-9806
▁alike	-9807
▁amend	-9808
▁andys	-9809
▁antic	-9810
▁antif	-9811
▁armed	-9812
▁aside	-9813
▁bagel	-9814
▁beast	-9815
▁bikin	-9816
▁billy	-9817
▁bloat	-9818
▁boast	-9819
▁bobby	-9820
▁bogus	-9821
▁bomer	-9822
▁booze	-9823
▁breed	-9824
▁brist	-9825
▁britt	-9826
▁bulls	-9827
▁bully	-9828
▁caine	-9829
▁casey	-9830
▁chapo	-9831
▁cheek	-9832
▁chili	-9833
▁chill	-9834
▁cindy	-9835
▁clamp	-9836
▁cland	-9837
▁clerk	-9838
▁clint	-9839
▁clown	-9840
▁costa	-9841
▁cruel	-9842
▁curse	-9843
▁cycle	-9844
▁dafoe	-9845
▁dedic	-9846
▁dense	-9847
▁dolly	-9848
▁doubt	-9849
▁eaton	-9850
▁ellen	-9851
▁elton	-9852
▁embry	-9853
▁famed	-9854
▁fancy	-9855
▁feige	-9856
▁fever	-9857
▁filed	-9858
▁filib	-9859
▁flags	-9860
▁flock	-9861
▁forge	-9862
▁fried	-9863
▁fully	-9864
▁gabby	-9865
▁gates	-9866
▁genet	-9867
▁genre	-9868
▁gotta	-9869
▁greys	-9870
▁grief	-9871
▁gryff	-9872
▁halal	-9873
▁harsh	-9874
▁hatch	-9875
▁hearn	-9876
▁heder	-9877
▁hedge	-9878
▁hints	-9879
▁honda	-9880
▁horan	-9881
▁hyena	-9882
▁ilana	-9883
▁ineff	-9884
▁inequ	-9885
▁ivana	-9886
▁jenni	-9887
▁jesse	-9888
▁karan	-9889
▁kmart	-9890
▁kress	-9891
▁lafer	-9892
▁lager	-9893
▁lavey	-9894
▁lefto	-9895
▁lenny	-9896
▁liber	-9897
▁loyal	-9898
▁meets	-9899
▁megyn	-9900
▁mehra	-9901
▁metal	-9902
▁moore	-9903
▁musth	-9904
▁niall	-9905
▁nixon	-9906
▁nsync	-9907
▁odoms	-9908
▁opera	-9909
▁outer	-9910
▁partn	-9911
▁patch	-9912
▁persu	-9913
▁phish	-9914
▁pikul	-9915
▁pixel	-9916
▁pompe	-9917
▁prase	-9918
▁reads	-9919
▁rebel	-9920
▁reeve	-9921
▁retur	-9922
▁rican	-9923
▁robot	-9924
▁rolex	-9925
▁roman	-9926
▁rooms	-9927
▁rowan	-9928
▁ryans	-9929
▁sains	-9930
▁sheet	-9931
▁shipp	-9932
▁shops	-9933
▁sixth	-9934
▁slump	-9935
▁snape	-9936
▁sober	-9937
▁sonys	-9938
▁sorts	-9939
▁speak	-9940
▁stark	-9941
▁steak	-9942
▁stiff	-9943
▁stuck	-9944
▁stump	-9945
▁stunt	-9946
▁teles	-9947
▁theme	-9948
▁tired	-9949
▁tools	-9950
▁trill	-9951
▁udall	-9952
▁ultim	-9953
▁undoc	-9954
▁unins	-9955
▁unreg	-9956
▁upton	-9957
▁urine	-9958
▁vault	-9959
▁vodka	-9960
▁waves	-9961
▁whale	-9962
▁whove	-9963
▁wiped	-9964
▁withd	-9965
▁yokel	-9966
▁youth	-9967
▁zelda	-9968
acamole	-9969
achmann	-9970
asingly	-9971
calypse	-9972
cessary	-9973
cipline	-9974
conduct	-9975
dressed	-9976
fitting	-9977
icopter	-9978
ideshow	-9979
ilities	-9980
install	-9981
issance	-9982
itchell	-9983
ivalent	-9984
leisure	-9985
liament	-9986
ophilia	-9987
orectal	-9988
playing	-9989
powered	-9990
radamus	-9991
rolling	-9992
through	-9993
umented	-9994
venture	-9995
wedding	-9996
▁Andrew	-9997
▁Ariana	-9998
▁Durham	-9999
▁Harvey	-10000
▁Murray	-10001
▁Norway	-10002
▁Oxford	-10003
▁Wilson	-10004
▁absurd	-10005
▁active	-10006
▁adidas	-10007
▁adonis	-10008
▁adrien	-10009
▁agreed	-10010
▁allyou	-10011
▁ancest	-10012
▁antiab	-10013
▁appreh	-10014
▁aquino	-10015
▁aretha	-10016
▁ariana	-10017
▁auburn	-10018
▁austin	-10019
▁backup	-10020
▁badass	-10021
▁barnes	-10022
▁bayern	-10023
▁beavan	-10024
▁beggar	-10025
▁benado	-10026
▁bikini	-10027
▁bluray	-10028
▁boeing	-10029
▁bojack	-10030
▁brunel	-10031
▁budhia	-10032
▁cannot	-10033
▁castle	-10034
▁chatty	-10035
▁cheney	-10036
▁colomb	-10037
▁connie	-10038
▁cornyn	-10039
▁cotton	-10040
▁cowboy	-10041
▁craigs	-10042
▁crater	-10043
▁cultiv	-10044
▁denzel	-10045
▁diesel	-10046
▁diplom	-10047
▁doodle	-10048
▁dorsey	-10049
▁downey	-10050
▁drowsy	-10051
▁durham	-10052
▁eighth	-10053
▁enroll	-10054
▁enthus	-10055
▁entree	-10056
▁episod	-10057
▁ewaste	-10058
▁excuse	-10059
▁exting	-10060
▁fcking	-10061
▁feeley	-10062
▁fiancé	-10063
▁fillet	-10064
▁fruity	-10065
▁glance	-10066
▁gobble	-10067
▁grader	-10068
▁grammy	-10069
▁gravit	-10070
▁greens	-10071
▁grieve	-10072
▁groups	-10073
▁hannah	-10074
▁harley	-10075
▁hilton	-10076
▁holmes	-10077
▁hotels	-10078
▁icarly	-10079
▁iloilo	-10080
▁incest	-10081
▁indias	-10082
▁indict	-10083
▁indoor	-10084
▁inevit	-10085
▁issued	-10086
▁janney	-10087
▁jenson	-10088
▁kermit	-10089
▁kerryw	-10090
▁kicker	-10091
▁kidman	-10092
▁kilmer	-10093
▁kimmel	-10094
▁korean	-10095
▁kumble	-10096
▁levels	-10097
▁livein	-10098
▁marcos	-10099
▁mening	-10100
▁mewtwo	-10101
▁murray	-10102
▁muslim	-10103
▁nathan	-10104
▁nature	-10105
▁norahs	-10106
▁norway	-10107
▁nougat	-10108
▁nyongo	-10109
▁opaque	-10110
▁oregon	-10111
▁paquin	-10112
▁parrot	-10113
▁pcxbox	-10114
▁period	-10115
▁perpet	-10116
▁persky	-10117
▁pestic	-10118
▁pfizer	-10119
▁popped	-10120
▁predom	-10121
▁puerto	-10122
▁queens	-10123
▁reacts	-10124
▁recoil	-10125
▁renato	-10126
▁rhimes	-10127
▁sanyas	-10128
▁scalia	-10129
▁serena	-10130
▁server	-10131
▁shonda	-10132
▁shoots	-10133
▁slaugh	-10134
▁sludge	-10135
▁snooki	-10136
▁stacey	-10137
▁sticks	-10138
▁stoner	-10139
▁stream	-10140
▁stroke	-10141
▁syrian	-10142
▁tablet	-10143
▁tastes	-10144
▁thrill	-10145
▁todays	-10146
▁trendy	-10147
▁tshirt	-10148
▁unable	-10149
▁unpaid	-10150
▁vanity	-10151
▁weighs	-10152
▁wendys	-10153
▁wooden	-10154
▁yamuna	-10155
▁zucker	-10156
Congress	-10157
american	-10158
ancouver	-10159
anthemum	-10160
bahulhaq	-10161
bebigger	-10162
drinking	-10163
elganger	-10164
enezuela	-10165
inspired	-10166
portscom	-10167
reatment	-10168
security	-10169
uschwitz	-10170
valuable	-10171
versible	-10172
▁African	-10173
▁Alabama	-10174
▁Atlanta	-10175
▁Beatles	-10176
▁Chomsky	-10177
▁Georgia	-10178
▁Goldman	-10179
▁Matthew	-10180
▁Mexican	-10181
▁Western	-10182
▁abigail	-10183
▁acetone	-10184
▁airdrie	-10185
▁alabama	-10186
▁angrily	-10187
▁answers	-10188
▁antonin	-10189
▁anytime	-10190
▁arrival	-10191
▁arrived	-10192
▁arsenio	-10193
▁barista	-10194
▁beatles	-10195
▁breslin	-10196
▁britton	-10197
▁browser	-10198
▁burgers	-10199
▁caterer	-10200
▁charles	-10201
▁chewing	-10202
▁choices	-10203
▁chomsky	-10204
▁comfort	-10205
▁congrat	-10206
▁congreg	-10207
▁consist	-10208
▁cooling	-10209
▁courage	-10210
▁crudups	-10211
▁curious	-10212
▁darkest	-10213
▁dealing	-10214
▁decimal	-10215
▁desktop	-10216
▁destiny	-10217
▁detroit	-10218
▁dingell	-10219
▁donates	-10220
▁efforts	-10221
▁elderly	-10222
▁entrust	-10223
▁erdogan	-10224
▁familys	-10225
▁farming	-10226
▁ferrell	-10227
▁filling	-10228
▁flavors	-10229
▁forgive	-10230
▁freeman	-10231
▁gadgets	-10232
▁giraffe	-10233
▁grenade	-10234
▁groupon	-10235
▁healing	-10236
▁heavily	-10237
▁hidilyn	-10238
▁houseke	-10239
▁houston	-10240
▁hudgens	-10241
▁inherit	-10242
▁instant	-10243
▁iranian	-10244
▁jackman	-10245
▁jewelry	-10246
▁joaquin	-10247
▁journal	-10248
▁ketchup	-10249
▁kirstie	-10250
▁kravitz	-10251
▁landing	-10252
▁lautner	-10253
▁leaders	-10254
▁leaguer	-10255
▁lecture	-10256
▁ledecky	-10257
▁lenadun	-10258
▁lindsay	-10259
▁located	-10260
▁mabilog	-10261
▁mammoth	-10262
▁matilda	-10263
▁mercado	-10264
▁mermaid	-10265
▁mindful	-10266
▁minimal	-10267
▁myspace	-10268
▁nagware	-10269
▁naijcom	-10270
▁nanette	-10271
▁nbcnews	-10272
▁neville	-10273
▁nomatic	-10274
▁nuggets	-10275
▁october	-10276
▁outdoor	-10277
▁ovation	-10278
▁perseid	-10279
▁picanha	-10280
▁pilotto	-10281
▁pinkman	-10282
▁pitcher	-10283
▁pornhub	-10284
▁pouring	-10285
▁radical	-10286
▁rainbow	-10287
▁raisman	-10288
▁reclaim	-10289
▁rolling	-10290
▁russell	-10291
▁samesex	-10292
▁sanches	-10293
▁sandler	-10294
▁sausage	-10295
▁schumer	-10296
▁scrolls	-10297
▁seasons	-10298
▁serving	-10299
▁shaping	-10300
▁smokers	-10301
▁someday	-10302
▁soprano	-10303
▁sprayed	-10304
▁streets	-10305
▁surgeon	-10306
▁systems	-10307
▁tootsie	-10308
▁topshop	-10309
▁trollin	-10310
▁turismo	-10311
▁utility	-10312
▁vaccine	-10313
▁valerie	-10314
▁vampire	-10315
▁various	-10316
▁vincent	-10317
▁visayas	-10318
▁visible	-10319
▁wallaby	-10320
▁watched	-10321
▁whistle	-10322
▁wilmore	-10323
▁winners	-10324
▁xfactor	-10325
carbonate	-10326
enezuelan	-10327
ification	-10328
ingenuous	-10329
itutional	-10330
▁Congress	-10331
▁Japanese	-10332
▁Northern	-10333
▁accepted	-10334
▁accurate	-10335
▁adderall	-10336
▁alphabet	-10337
▁assassin	-10338
▁assorted	-10339
▁atkinson	-10340
▁attacker	-10341
▁attorney	-10342
▁babygrow	-10343
▁bethesda	-10344
▁bulletin	-10345
▁captured	-10346
▁carriers	-10347
▁cerebral	-10348
▁ceremony	-10349
▁cervical	-10350
▁channels	-10351
▁chitchat	-10352
▁claiming	-10353
▁clarkson	-10354
▁clinical	-10355
▁comeback	-10356
▁constant	-10357
▁contains	-10358
▁converse	-10359
▁cornwell	-10360
▁cosmetic	-10361
▁countrys	-10362
▁courtesy	-10363
▁cracking	-10364
▁creators	-10365
▁currency	-10366
▁delaware	-10367
▁democrat	-10368
▁determin	-10369
▁disabled	-10370
▁disagree	-10371
▁disaster	-10372
▁donation	-10373
▁draymond	-10374
▁drunkard	-10375
▁eastwood	-10376
▁electron	-10377
▁endorses	-10378
▁entering	-10379
▁entrance	-10380
▁exciting	-10381
▁eyeliner	-10382
▁feelgood	-10383
▁focusing	-10384
▁fortress	-10385
▁fructose	-10386
▁grieving	-10387
▁gryffind	-10388
▁guardian	-10389
▁gwynethp	-10390
▁handling	-10391
▁hermione	-10392
▁horrific	-10393
▁horseman	-10394
▁imperson	-10395
▁inflight	-10396
▁intended	-10397
▁jarmusch	-10398
▁jennylyn	-10399
▁kangaroo	-10400
▁kendrick	-10401
▁kimberly	-10402
▁laughing	-10403
▁launched	-10404
▁lawgiver	-10405
▁leastvis	-10406
▁leighton	-10407
▁lemonade	-10408
▁medieval	-10409
▁melanias	-10410
▁memorial	-10411
▁metaphor	-10412
▁minority	-10413
▁mistaken	-10414
▁monsanto	-10415
▁motivate	-10416
▁mystique	-10417
▁nebraska	-10418
▁nondairy	-10419
▁opposite	-10420
▁ordinary	-10421
▁painkill	-10422
▁patricia	-10423
▁paycheck	-10424
▁pinknews	-10425
▁planting	-10426
▁pleasure	-10427
▁politiko	-10428
▁polonium	-10429
▁ponytail	-10430
▁positive	-10431
▁potatoes	-10432
▁producer	-10433
▁province	-10434
▁pyramids	-10435
▁racially	-10436
▁reaching	-10437
▁rejected	-10438
▁reliable	-10439
▁remotely	-10440
▁restrict	-10441
▁reunites	-10442
▁romantic	-10443
▁scenario	-10444
▁seacrest	-10445
▁seashore	-10446
▁sessions	-10447
▁shedding	-10448
▁showcase	-10449
▁skincare	-10450
▁socalled	-10451
▁sonogram	-10452
▁spectate	-10453
▁spectrum	-10454
▁staffers	-10455
▁sudeikis	-10456
▁supposed	-10457
▁survival	-10458
▁survivor	-10459
▁suspects	-10460
▁swimmers	-10461
▁symptoms	-10462
▁terribly	-10463
▁textbook	-10464
▁timeline	-10465
▁trapdoor	-10466
▁trappist	-10467
▁trespass	-10468
▁triplets	-10469
▁unfriend	-10470
▁upstairs	-10471
▁validate	-10472
▁westboro	-10473
generation	-10474
▁administr	-10475
▁amusement	-10476
▁analgesic	-10477
▁antitrump	-10478
▁appalling	-10479
▁blackrock	-10480
▁blueberry	-10481
▁brazilian	-10482
▁burkhardt	-10483
▁charizard	-10484
▁collision	-10485
▁colorados	-10486
▁condiment	-10487
▁confident	-10488
▁continent	-10489
▁correctly	-10490
▁diagnosis	-10491
▁discussed	-10492
▁earthlike	-10493
▁economies	-10494
▁effective	-10495
▁evolution	-10496
▁existence	-10497
▁explainer	-10498
▁explosion	-10499
▁eyeshadow	-10500
▁federline	-10501
▁ffcacrush	-10502
▁fundament	-10503
▁gamertags	-10504
▁graduates	-10505
▁guacamole	-10506
▁gymnasium	-10507
▁hangovers	-10508
▁holocaust	-10509
▁household	-10510
▁hurricane	-10511
▁hydraulic	-10512
▁illegally	-10513
▁impressed	-10514
▁inflation	-10515
▁infuriate	-10516
▁initially	-10517
▁kanyewest	-10518
▁laferrari	-10519
▁launching	-10520
▁materials	-10521
▁mccartney	-10522
▁memorable	-10523
▁middleage	-10524
▁milestone	-10525
▁mysteries	-10526
▁necessity	-10527
▁nightclub	-10528
▁northeast	-10529
▁philosoph	-10530
▁pinterest	-10531
▁recruiter	-10532
▁rejoinder	-10533
▁religious	-10534
▁retweeted	-10535
▁revealing	-10536
▁rocketeer	-10537
▁sanctuary	-10538
▁schwimmer	-10539
▁secretary	-10540
▁slaughter	-10541
▁softshell	-10542
▁statistic	-10543
▁struggled	-10544
▁subreddit	-10545
▁supergirl	-10546
▁suspended	-10547
▁telescope	-10548
▁touchdown	-10549
▁traveling	-10550
▁treatment	-10551
▁truncheon	-10552
▁uninstall	-10553
▁uninsured	-10554
▁unnatural	-10555
▁valentine	-10556
▁vehicular	-10557
▁wikileaks	-10558
▁witnessed	-10559
▁accomplish	-10560
▁antibiotic	-10561
▁apocalypse	-10562
▁assignment	-10563
▁athleisure	-10564
▁babysitter	-10565
▁background	-10566
▁chromecast	-10567
▁colorectal	-10568
▁constantly	-10569
▁convenient	-10570
▁courchevel	-10571
▁definitive	-10572
▁discussing	-10573
▁disgusting	-10574
▁equivalent	-10575
▁extinguish	-10576
▁fundraiser	-10577
▁gandolfini	-10578
▁gymnastics	-10579
▁helicopter	-10580
▁highpaying	-10581
▁horrifying	-10582
▁huffington	-10583
▁inequality	-10584
▁inevitably	-10585
▁literature	-10586
▁longbottom	-10587
▁mackintosh	-10588
▁manchester	-10589
▁meaningful	-10590
▁metallicas	-10591
▁misconduct	-10592
▁monogamous	-10593
▁motivation	-10594
▁neutrality	-10595
▁opposition	-10596
▁parliament	-10597
▁phosphorus	-10598
▁plagiarism	-10599
▁plagiarist	-10600
▁prewedding	-10601
▁prosecutor	-10602
▁revolution	-10603
▁sainsburys	-10604
▁spacecraft	-10605
▁spectacles	-10606
▁superwoman	-10607
▁supporting	-10608
▁thirdgrade	-10609
▁traditions	-10610
▁unemployed	-10611
▁valentines	-10612
▁vanderbilt	-10613
▁veepstakes	-10614
▁vegetables	-10615
▁wheelchair	-10616
▁zuckerberg	-10617
▁athleticism	-10618
▁bestdressed	-10619
▁broadchurch	-10620
▁chromebooks	-10621
▁clandestine	-10622
▁connections	-10623
▁demographic	-10624
▁devastation	-10625
▁enchantress	-10626
▁engineering	-10627
▁exboyfriend	-10628
▁explanation	-10629
▁fingerprint	-10630
▁genetically	-10631
▁ineffective	-10632
▁infographic	-10633
▁legendaries	-10634
▁legislative	-10635
▁mindblowing	-10636
▁misbahulhaq	-10637
▁momentarily	-10638
▁partnership	-10639
▁politically	-10640
▁radioactive	-10641
▁regulations	-10642
▁residential	-10643
▁unnecessary	-10644
▁unregulated	-10645
chrysanthemum	-10646
▁allyoucaneat	-10647
▁antiabortion	-10648
▁cbssportscom	-10649
▁constitution	-10650
▁conventional	-10651
▁disingenuous	-10652
▁distribution	-10653
▁doppelganger	-10654
▁embarrassing	-10655
▁impressively	-10656
▁increasingly	-10657
▁irresistible	-10658
▁maltreatment	-10659
▁metropolitan	-10660
▁overwhelming	-10661
▁praseodymium	-10662
▁prescription	-10663
▁restaurateur	-10664
▁straightener	-10665
▁subscription	-10666
▁technicality	-10667
▁undocumented	-10668
▁concentration	-10669
▁gravitational	-10670
▁organizations	-10671
▁significantly	-10672
▁communications	-10673
▁constitutional	-10674
▁groundbreaking	-10675
▁shouldbebigger	-10676
▁uncontrollably	-10677
▁congratulations	-10678
▁kerrywashington	-10679
▁procrastination	-10680
18	-10681
40	-10682
hr	-10683
iq	-10684
ja	-10685
va	-10686
vp	-10687
ads	-10688
aph	-10689
awn	-10690
ays	-10691
azz	-10692
cop	-10693
det	-10694
don	-10695
esi	-10696
gur	-10697
iat	-10698
idi	-10699
irk	-10700
jac	-10701
kel	-10702
nut	-10703
ogy	-10704
ovs	-10705
ped	-10706
ppo	-10707
reh	-10708
str	-10709
tah	-10710
tog	-10711
uns	-10712
uth	-10713
uts	-10714
xus	-10715
ymi	-10716
zen	-10717
▁46	-10718
▁63	-10719
▁66	-10720
▁69	-10721
▁97	-10722
▁Eb	-10723
▁Ed	-10724
▁Ne	-10725
▁dj	-10726
▁ew	-10727
▁hr	-10728
▁ii	-10729
▁ki	-10730
▁lv	-10731
▁nn	-10732
▁rs	-10733
▁uc	-10734
Just	-10735
achu	-10736
adas	-10737
adel	-10738
alab	-10739
alds	-10740
altr	-10741
amel	-10742
amic	-10743
andy	-10744
anim	-10745
anne	-10746
atum	-10747
avys	-10748
ayne	-10749
bone	-10750
busy	-10751
ccas	-10752
cine	-10753
enic	-10754
esty	-10755
etat	-10756
eyed	-10757
gent	-10758
gged	-10759
high	-10760
icky	-10761
imen	-10762
lair	-10763
leen	-10764
lets	-10765
lift	-10766
love	-10767
odge	-10768
ofil	-10769
olus	-10770
oose	-10771
orub	-10772
oule	-10773
pert	-10774
pist	-10775
reci	-10776
ssil	-10777
stin	-10778
this	-10779
ttes	-10780
turn	-10781
umst	-10782
veys	-10783
yers	-10784
▁113	-10785
▁197	-10786
▁Ali	-10787
▁Hud	-10788
▁Leo	-10789
▁Nel	-10790
▁aer	-10791
▁bos	-10792
▁cac	-10793
▁cul	-10794
▁dat	-10795
▁dna	-10796
▁eel	-10797
▁era	-10798
▁flu	-10799
▁gru	-10800
▁hut	-10801
▁lag	-10802
▁leo	-10803
▁lid	-10804
▁lun	-10805
▁max	-10806
▁mes	-10807
▁mut	-10808
▁pew	-10809
▁poo	-10810
▁pry	-10811
▁ran	-10812
▁reb	-10813
▁rew	-10814
▁rig	-10815
▁ron	-10816
▁tam	-10817
▁tha	-10818
▁tox	-10819
▁toy	-10820
▁ven	-10821
▁zap	-10822
acist	-10823
addle	-10824
alted	-10825
andhi	-10826
anish	-10827
arazz	-10828
atrue	-10829
backs	-10830
emark	-10831
enins	-10832
ennon	-10833
enses	-10834
esley	-10835
fives	-10836
foods	-10837
grown	-10838
hagic	-10839
icker	-10840
icles	-10841
itary	-10842
lings	-10843
monic	-10844
music	-10845
oking	-10846
onnas	-10847
orith	-10848
orton	-10849
osing	-10850
oston	-10851
otive	-10852
owell	-10853
oyant	-10854
quest	-10855
ribut	-10856
ropri	-10857
ulate	-10858
umbus	-10859
uming	-10860
ussed	-10861
valds	-10862
vidia	-10863
ystem	-10864
▁2010	-10865
▁Conn	-10866
▁June	-10867
▁Mand	-10868
▁Seth	-10869
▁Utah	-10870
▁Wind	-10871
▁aims	-10872
▁alan	-10873
▁arts	-10874
▁astr	-10875
▁atom	-10876
▁auss	-10877
▁bags	-10878
▁bake	-10879
▁bast	-10880
▁bism	-10881
▁bode	-10882
▁bras	-10883
▁brom	-10884
▁bung	-10885
▁carn	-10886
▁cate	-10887
▁chad	-10888
▁chic	-10889
▁claw	-10890
▁cope	-10891
▁cork	-10892
▁crab	-10893
▁crun	-10894
▁cull	-10895
▁cups	-10896
▁dang	-10897
▁dawn	-10898
▁deem	-10899
▁defy	-10900
▁dirt	-10901
▁duck	-10902
▁ebay	-10903
▁eden	-10904
▁eels	-10905
▁emmy	-10906
▁enjo	-10907
▁envy	-10908
▁fert	-10909
▁fine	-10910
▁flop	-10911
▁ford	-10912
▁fret	-10913
▁geek	-10914
▁glad	-10915
▁gour	-10916
▁hart	-10917
▁icky	-10918
▁jaws	-10919
▁jojo	-10920
▁jtim	-10921
▁leap	-10922
▁lids	-10923
▁lull	-10924
▁mall	-10925
▁mode	-10926
▁nost	-10927
▁nude	-10928
▁obri	-10929
▁oral	-10930
▁outs	-10931
▁paed	-10932
▁pand	-10933
▁peal	-10934
▁pent	-10935
▁pier	-10936
▁plum	-10937
▁poly	-10938
▁posh	-10939
▁pots	-10940
▁puls	-10941
▁pund	-10942
▁quin	-10943
▁rage	-10944
▁rake	-10945
▁rede	-10946
▁redu	-10947
▁riot	-10948
▁runs	-10949
▁sara	-10950
▁saun	-10951
▁scre	-10952
▁seth	-10953
▁shit	-10954
▁sits	-10955
▁slic	-10956
▁snag	-10957
▁summ	-10958
▁sums	-10959
▁tale	-10960
▁thus	-10961
▁topp	-10962
▁tout	-10963
▁upgr	-10964
▁utah	-10965
▁vari	-10966
▁vice	-10967
▁viii	-10968
▁vult	-10969
▁wary	-10970
▁weak	-10971
▁whoa	-10972
▁zero	-10973
atedly	-10974
atrick	-10975
buster	-10976
earing	-10977
encing	-10978
engine	-10979
ermans	-10980
father	-10981
grader	-10982
hemorr	-10983
iently	-10984
ilians	-10985
infish	-10986
isease	-10987
izable	-10988
ladesh	-10989
laimer	-10990
lining	-10991
manent	-10992
nowned	-10993
ombian	-10994
phanie	-10995
ribble	-10996
teenth	-10997
▁12000	-10998
▁25000	-10999
▁Blair	-11000
▁Blake	-11001
▁Broad	-11002
▁Davys	-11003
▁Diana	-11004
▁Ebola	-11005
▁Egypt	-11006
▁Handy	-11007
▁Hanks	-11008
▁Hayes	-11009
▁Johns	-11010
▁Leice	-11011
▁Marks	-11012
▁Wayne	-11013
▁adore	-11014
▁annie	-11015
▁argue	-11016
▁auton	-11017
▁balls	-11018
▁barry	-11019
▁birds	-11020
▁blair	-11021
▁blend	-11022
▁blink	-11023
▁bonds	-11024
▁bumps	-11025
▁bunny	-11026
▁cameo	-11027
▁cease	-11028
▁chase	-11029
▁chips	-11030
▁codes	-11031
▁craft	-11032
▁crump	-11033
▁cured	-11034
▁cyber	-11035
▁dates	-11036
▁dicks	-11037
▁ebola	-11038
▁effic	-11039
▁egypt	-11040
▁elvis	-11041
▁equal	-11042
▁erase	-11043
▁error	-11044
▁expel	-11045
▁faced	-11046
▁fails	-11047
▁farms	-11048
▁fears	-11049
▁filip	-11050
▁fries	-11051
▁globe	-11052
▁goals	-11053
▁grail	-11054
▁grave	-11055
▁greet	-11056
▁hayes	-11057
▁hoard	-11058
▁holes	-11059
▁homet	-11060
▁hopes	-11061
▁hover	-11062
▁icymi	-11063
▁imgur	-11064
▁initi	-11065
▁intel	-11066
▁johns	-11067
▁joule	-11068
▁kidna	-11069
▁korea	-11070
▁leaps	-11071
▁leice	-11072
▁likes	-11073
▁linus	-11074
▁lodge	-11075
▁lucas	-11076
▁marks	-11077
▁munch	-11078
▁notor	-11079
▁obese	-11080
▁occur	-11081
▁parks	-11082
▁pence	-11083
▁pinch	-11084
▁pours	-11085
▁prior	-11086
▁pulse	-11087
▁races	-11088
▁redem	-11089
▁resur	-11090
▁ridic	-11091
▁saint	-11092
▁saves	-11093
▁scrap	-11094
▁shall	-11095
▁slick	-11096
▁sorry	-11097
▁stood	-11098
▁straw	-11099
▁strip	-11100
▁suite	-11101
▁swims	-11102
▁swipe	-11103
▁tempt	-11104
▁terry	-11105
▁trace	-11106
▁trave	-11107
▁treas	-11108
▁urges	-11109
▁views	-11110
▁wayne	-11111
▁widen	-11112
Justice	-11113
allment	-11114
altrows	-11115
animous	-11116
appreci	-11117
aration	-11118
asputin	-11119
clinton	-11120
ecticut	-11121
english	-11122
finance	-11123
forward	-11124
ictoria	-11125
itively	-11126
looking	-11127
mercial	-11128
network	-11129
ofilter	-11130
ovation	-11131
portion	-11132
testine	-11133
▁Ashton	-11134
▁Boston	-11135
▁Edward	-11136
▁Gandhi	-11137
▁Harris	-11138
▁Hudson	-11139
▁Lennon	-11140
▁Middle	-11141
▁Nelson	-11142
▁Turner	-11143
▁aleppo	-11144
▁ashton	-11145
▁aubrey	-11146
▁babies	-11147
▁barter	-11148
▁blames	-11149
▁blasts	-11150
▁boiled	-11151
▁boring	-11152
▁canada	-11153
▁centre	-11154
▁checks	-11155
▁classy	-11156
▁copies	-11157
▁corner	-11158
▁covers	-11159
▁debuts	-11160
▁defend	-11161
▁depend	-11162
▁derive	-11163
▁dining	-11164
▁dispar	-11165
▁divide	-11166
▁doping	-11167
▁dubbed	-11168
▁elimin	-11169
▁ensure	-11170
▁exclus	-11171
▁festiv	-11172
▁fierce	-11173
▁filled	-11174
▁flying	-11175
▁fortun	-11176
▁fossil	-11177
▁foster	-11178
▁golden	-11179
▁gossip	-11180
▁gotten	-11181
▁gunman	-11182
▁harris	-11183
▁indulg	-11184
▁insect	-11185
▁kansas	-11186
▁ladder	-11187
▁laughs	-11188
▁lineup	-11189
▁lining	-11190
▁lyrics	-11191
▁mechan	-11192
▁myself	-11193
▁nvidia	-11194
▁offers	-11195
▁pantry	-11196
▁pirate	-11197
▁plague	-11198
▁refres	-11199
▁repair	-11200
▁repeat	-11201
▁retain	-11202
▁revoke	-11203
▁reward	-11204
▁rolled	-11205
▁rotten	-11206
▁rounds	-11207
▁ruined	-11208
▁rushed	-11209
▁shirts	-11210
▁shiver	-11211
▁skirts	-11212
▁smells	-11213
▁smokes	-11214
▁softly	-11215
▁sultan	-11216
▁sweden	-11217
▁thread	-11218
▁titles	-11219
▁unbear	-11220
▁unfold	-11221
▁verify	-11222
▁voices	-11223
▁yogurt	-11224
eninsula	-11225
reatable	-11226
restrial	-11227
▁Arabian	-11228
▁Beijing	-11229
▁Mandela	-11230
▁Montana	-11231
▁Spencer	-11232
▁Stewart	-11233
▁Windows	-11234
▁accuser	-11235
▁addicts	-11236
▁affleck	-11237
▁alltime	-11238
▁amounts	-11239
▁antonym	-11240
▁apology	-11241
▁artists	-11242
▁asshole	-11243
▁atheist	-11244
▁austral	-11245
▁beijing	-11246
▁blister	-11247
▁bombing	-11248
▁bondage	-11249
▁breathe	-11250
▁candace	-11251
▁carried	-11252
▁centers	-11253
▁checked	-11254
▁choking	-11255
▁circles	-11256
▁cleaner	-11257
▁compreh	-11258
▁condoms	-11259
▁consume	-11260
▁context	-11261
▁convert	-11262
▁crashed	-11263
▁cringew	-11264
▁critics	-11265
▁crucial	-11266
▁delayed	-11267
▁dieting	-11268
▁dislike	-11269
▁disrupt	-11270
▁drinker	-11271
▁elected	-11272
▁emotion	-11273
▁excuses	-11274
▁expense	-11275
▁factors	-11276
▁falcons	-11277
▁fireman	-11278
▁focuses	-11279
▁freedom	-11280
▁fucking	-11281
▁fulfill	-11282
▁further	-11283
▁glacier	-11284
▁glimpse	-11285
▁hacking	-11286
▁handful	-11287
▁harvest	-11288
▁heating	-11289
▁individ	-11290
▁inhabit	-11291
▁injured	-11292
▁knowing	-11293
▁leather	-11294
▁legends	-11295
▁letting	-11296
▁markets	-11297
▁matthew	-11298
▁meerkat	-11299
▁montana	-11300
▁offline	-11301
▁painted	-11302
▁pastime	-11303
▁patrick	-11304
▁percept	-11305
▁phrases	-11306
▁pikachu	-11307
▁playoff	-11308
▁popping	-11309
▁posting	-11310
▁pushing	-11311
▁qualify	-11312
▁reflect	-11313
▁related	-11314
▁sadness	-11315
▁servers	-11316
▁shingle	-11317
▁shopper	-11318
▁shortly	-11319
▁showers	-11320
▁simmons	-11321
▁slowing	-11322
▁stagger	-11323
▁tipping	-11324
▁torment	-11325
▁treated	-11326
▁trigger	-11327
▁turtles	-11328
▁twentys	-11329
▁twinkle	-11330
▁unveils	-11331
▁useless	-11332
▁vaporub	-11333
▁variety	-11334
▁venture	-11335
▁visited	-11336
▁vulture	-11337
▁warfare	-11338
detective	-11339
stershire	-11340
▁Anderson	-11341
▁Broadway	-11342
▁Brooklyn	-11343
▁Reynolds	-11344
▁achieved	-11345
▁advanced	-11346
▁aircraft	-11347
▁algorith	-11348
▁anderson	-11349
▁applying	-11350
▁appropri	-11351
▁atheists	-11352
▁atrocity	-11353
▁backpack	-11354
▁badmouth	-11355
▁befriend	-11356
▁blocking	-11357
▁blooming	-11358
▁broadway	-11359
▁brooklyn	-11360
▁carrying	-11361
▁category	-11362
▁cheapest	-11363
▁circumst	-11364
▁concerns	-11365
▁confront	-11366
▁contempl	-11367
▁counting	-11368
▁coupling	-11369
▁creation	-11370
▁declined	-11371
▁deserves	-11372
▁diagnose	-11373
▁distance	-11374
▁dolphins	-11375
▁drilling	-11376
▁drinkers	-11377
▁employer	-11378
▁enjoying	-11379
▁feminism	-11380
▁fighters	-11381
▁freaking	-11382
▁frequent	-11383
▁freshmen	-11384
▁guarante	-11385
▁hometown	-11386
▁horribly	-11387
▁hydrogen	-11388
▁ignoring	-11389
▁intrigue	-11390
▁investor	-11391
▁japanese	-11392
▁johnsons	-11393
▁kathleen	-11394
▁leggings	-11395
▁macbooks	-11396
▁madonnas	-11397
▁midnight	-11398
▁moisture	-11399
▁murdered	-11400
▁observer	-11401
▁paparazz	-11402
▁perceive	-11403
▁pikatrue	-11404
▁predicts	-11405
▁preorder	-11406
▁prisoner	-11407
▁produced	-11408
▁realized	-11409
▁recorded	-11410
▁refugees	-11411
▁refusing	-11412
▁resemble	-11413
▁returned	-11414
▁reynolds	-11415
▁rigorous	-11416
▁scribble	-11417
▁separate	-11418
▁sherlock	-11419
▁shutdown	-11420
▁skipping	-11421
▁slightly	-11422
▁speeding	-11423
▁sporting	-11424
▁suffered	-11425
▁suitcase	-11426
▁sunlight	-11427
▁surveyed	-11428
▁survived	-11429
▁sweetest	-11430
▁theaters	-11431
▁thedaily	-11432
▁throwing	-11433
▁toddlers	-11434
▁tonights	-11435
▁torvalds	-11436
▁trillion	-11437
▁weirdest	-11438
▁withdraw	-11439
▁youngest	-11440
discipline	-11441
ifications	-11442
▁Delicious	-11443
▁Middleton	-11444
▁Spielberg	-11445
▁abduction	-11446
▁activists	-11447
▁affection	-11448
▁allergies	-11449
▁amendment	-11450
▁apologize	-11451
▁automaton	-11452
▁biologist	-11453
▁confessed	-11454
▁corpulent	-11455
▁countless	-11456
▁decisions	-11457
▁delicious	-11458
▁demanding	-11459
▁described	-11460
▁developer	-11461
▁dominated	-11462
▁downright	-11463
▁essential	-11464
▁everyones	-11465
▁exercises	-11466
▁explained	-11467
▁fertility	-11468
▁firstever	-11469
▁forgotten	-11470
▁gladiolus	-11471
▁guardians	-11472
▁highfives	-11473
▁incubator	-11474
▁intestine	-11475
▁jerusalem	-11476
▁leicester	-11477
▁macintosh	-11478
▁manhattan	-11479
▁messaging	-11480
▁paralysis	-11481
▁paralyzed	-11482
▁permanent	-11483
▁prototype	-11484
▁pulsation	-11485
▁qualified	-11486
▁releasing	-11487
▁returning	-11488
▁sensitive	-11489
▁separated	-11490
▁sleepless	-11491
▁snapchats	-11492
▁spreading	-11493
▁stephanie	-11494
▁strangest	-11495
▁structure	-11496
▁tennessee	-11497
▁unanimous	-11498
appreciated	-11499
ennsylvania	-11500
hemorrhagic	-11501
▁Antarctica	-11502
▁antarctica	-11503
▁automotive	-11504
▁cigarettes	-11505
▁classified	-11506
▁collecting	-11507
▁commercial	-11508
▁commission	-11509
▁complained	-11510
▁complicate	-11511
▁considered	-11512
▁disclaimer	-11513
▁endangered	-11514
▁evaluation	-11515
▁filibuster	-11516
▁fourletter	-11517
▁greenpeace	-11518
▁humanistic	-11519
▁identified	-11520
▁introduced	-11521
▁invaluable	-11522
▁kidnapping	-11523
▁livestream	-11524
▁mississipp	-11525
▁nevertrump	-11526
▁passionate	-11527
▁philosophy	-11528
▁presidency	-11529
▁redemption	-11530
▁reputation	-11531
▁simulation	-11532
▁skyscraper	-11533
▁struggling	-11534
▁sweetheart	-11535
▁threatened	-11536
▁timberlake	-11537
▁Connecticut	-11538
▁alternative	-11539
▁antibiotics	-11540
▁blockbuster	-11541
▁competitive	-11542
▁connecticut	-11543
▁countrywide	-11544
▁description	-11545
▁disturbance	-11546
▁dolphinfish	-11547
▁encountered	-11548
▁exploration	-11549
▁grandmother	-11550
▁imagination	-11551
▁indignation	-11552
▁installment	-11553
▁journalists	-11554
▁narcissists	-11555
▁necessarily	-11556
▁responsible	-11557
▁scholarship	-11558
▁surrounding	-11559
▁unconscious	-11560
▁untreatable	-11561
▁cringeworthy	-11562
▁deceleration	-11563
▁grandmothers	-11564
▁grandparents	-11565
▁yahoofinance	-11566
▁collaboration	-11567
▁comprehensive	-11568
▁kimkardashian	-11569
▁Leicestershire	-11570
▁disappointment	-11571
▁hillaryclinton	-11572
▁productiveness	-11573
▁systematically	-11574
▁straightforward	-11575
47	-11576
ni	-11577
700	-11578
atz	-11579
axx	-11580
bac	-11581
fac	-11582
fen	-11583
gil	-11584
hei	-11585
hli	-11586
ijs	-11587
iki	-11588
kae	-11589
mok	-11590
omg	-11591
otb	-11592
pas	-11593
pee	-11594
rep	-11595
roe	-11596
uca	-11597
weg	-11598
ysm	-11599
awi	-11600
awk	-11601
okh	-11602
zhe	-11603
zos	-11604
▁02	-11605
▁67	-11606
▁78	-11607
▁Ev	-11608
▁Ja	-11609
▁Na	-11610
▁Ow	-11611
▁wy	-11612
▁xf	-11613
▁ya	-11614
▁zs	-11615
1990	-11616
2016	-11617
3500	-11618
8000	-11619
acer	-11620
acom	-11621
airn	-11622
amaz	-11623
amps	-11624
anna	-11625
anni	-11626
bacc	-11627
bene	-11628
blum	-11629
bomb	-11630
borg	-11631
cale	-11632
cemi	-11633
cuit	-11634
cups	-11635
educ	-11636
edup	-11637
empl	-11638
epri	-11639
eror	-11640
eroy	-11641
fani	-11642
foam	-11643
folk	-11644
frey	-11645
gbtq	-11646
gedy	-11647
gett	-11648
hadé	-11649
iasm	-11650
icun	-11651
iked	-11652
ikka	-11653
imov	-11654
incl	-11655
iods	-11656
itmo	-11657
kovs	-11658
lane	-11659
loop	-11660
luto	-11661
mbly	-11662
miri	-11663
nand	-11664
oggs	-11665
okka	-11666
oldt	-11667
oubt	-11668
oudy	-11669
park	-11670
paul	-11671
phis	-11672
poly	-11673
qaed	-11674
rann	-11675
reli	-11676
riti	-11677
some	-11678
steo	-11679
tale	-11680
taly	-11681
trum	-11682
uero	-11683
uffy	-11684
ulhu	-11685
uman	-11686
untu	-11687
utan	-11688
when	-11689
wrap	-11690
ynoy	-11691
zatz	-11692
zech	-11693
zene	-11694
▁007	-11695
▁140	-11696
▁264	-11697
▁325	-11698
▁349	-11699
bsm	-11700
eed	-11701
gar	-11702
gle	-11703
pox	-11704
uba	-11705
▁Jo	-11706
▁Sh	-11707
blyn	-11708
coff	-11709
fish	-11710
inne	-11711
olub	-11712
pial	-11713
wave	-11714
▁420	-11715
▁700	-11716
▁815	-11717
▁Arh	-11718
▁Don	-11719
▁Lin	-11720
▁Sam	-11721
▁Sue	-11722
▁adl	-11723
▁bah	-11724
▁bax	-11725
▁blu	-11726
▁caf	-11727
▁cbi	-11728
▁cbo	-11729
▁dck	-11730
▁dyn	-11731
▁emm	-11732
▁eul	-11733
▁foo	-11734
▁fug	-11735
▁gav	-11736
▁gin	-11737
▁hij	-11738
▁jeb	-11739
▁jok	-11740
▁jpg	-11741
▁mcn	-11742
▁mog	-11743
▁paj	-11744
▁paw	-11745
▁rat	-11746
▁sai	-11747
▁stp	-11748
▁tua	-11749
▁urd	-11750
▁usd	-11751
▁utd	-11752
▁vii	-11753
▁wig	-11754
▁xia	-11755
achey	-11756
aints	-11757
amata	-11758
angue	-11759
anoes	-11760
anoog	-11761
atica	-11762
auder	-11763
awker	-11764
axxer	-11765
bacco	-11766
beast	-11767
blems	-11768
bread	-11769
calif	-11770
chale	-11771
ckett	-11772
ctual	-11773
depri	-11774
dgery	-11775
edict	-11776
edish	-11777
eneca	-11778
enjoy	-11779
entic	-11780
erved	-11781
etery	-11782
etics	-11783
fifth	-11784
fires	-11785
flate	-11786
folio	-11787
gaery	-11788
geant	-11789
grass	-11790
gross	-11791
henjo	-11792
holip	-11793
horse	-11794
human	-11795
ibbed	-11796
iberi	-11797
icial	-11798
iclad	-11799
ipt	-11800
kiy	-11801
pip	-11802
usc	-11803
▁xl	-11804
ablo	-11805
asio	-11806
bath	-11807
irlo	-11808
nell	-11809
segg	-11810
shay	-11811
uled	-11812
upil	-11813
uple	-11814
▁agu	-11815
▁apl	-11816
▁mcm	-11817
ailey	-11818
alach	-11819
ciple	-11820
enven	-11821
icuno	-11822
idges	-11823
ielyn	-11824
ilder	-11825
inals	-11826
ipsos	-11827
iraly	-11828
isoft	-11829
isons	-11830
ithik	-11831
itled	-11832
itors	-11833
iveag	-11834
izomb	-11835
james	-11836
jones	-11837
leave	-11838
letes	-11839
marie	-11840
mense	-11841
mpath	-11842
nande	-11843
nexus	-11844
ockey	-11845
ofree	-11846
oirse	-11847
olice	-11848
olish	-11849
organ	-11850
orias	-11851
otter	-11852
ovela	-11853
paint	-11854
perry	-11855
plain	-11856
plate	-11857
pleas	-11858
polic	-11859
ppets	-11860
racha	-11861
ragil	-11862
rator	-11863
reaty	-11864
riatt	-11865
risal	-11866
ritch	-11867
roach	-11868
rofen	-11869
seven	-11870
stock	-11871
tella	-11872
types	-11873
uluri	-11874
until	-11875
urist	-11876
vance	-11877
vette	-11878
viral	-11879
water	-11880
which	-11881
while	-11882
wings	-11883
wrink	-11884
xpial	-11885
xygen	-11886
yroid	-11887
ysmal	-11888
zheim	-11889
▁1100	-11890
▁1965	-11891
▁1984	-11892
▁1995	-11893
▁2005	-11894
▁Bulg	-11895
▁Eden	-11896
▁Gren	-11897
▁Seat	-11898
▁Tara	-11899
ls	-11900
yc	-11901
lux	-11902
▁kl	-11903
▁sv	-11904
acks	-11905
agle	-11906
iaut	-11907
isia	-11908
itto	-11909
izon	-11910
ondo	-11911
rane	-11912
sold	-11913
uire	-11914
▁dag	-11915
▁oll	-11916
▁rim	-11917
▁svu	-11918
acked	-11919
adise	-11920
alled	-11921
atile	-11922
edies	-11923
iesel	-11924
irkoa	-11925
ivert	-11926
model	-11927
ntime	-11928
resso	-11929
ulary	-11930
▁ages	-11931
▁agon	-11932
▁alga	-11933
▁apat	-11934
▁aria	-11935
▁asth	-11936
▁aure	-11937
▁badm	-11938
▁benn	-11939
▁bffs	-11940
▁bfly	-11941
▁bike	-11942
▁blot	-11943
▁bolt	-11944
▁caca	-11945
▁clar	-11946
▁clip	-11947
▁clue	-11948
▁cmon	-11949
▁cnbc	-11950
▁core	-11951
▁cray	-11952
▁cred	-11953
▁cudi	-11954
▁curv	-11955
▁cusp	-11956
▁dahl	-11957
▁daro	-11958
▁doub	-11959
▁duch	-11960
▁duff	-11961
▁dunk	-11962
▁dunn	-11963
▁dyes	-11964
▁eats	-11965
▁elle	-11966
▁erin	-11967
▁erot	-11968
▁exec	-11969
▁fadi	-11970
▁fart	-11971
▁flet	-11972
▁foie	-11973
▁foil	-11974
▁gaze	-11975
▁gigi	-11976
▁glit	-11977
▁gord	-11978
▁gras	-11979
▁gret	-11980
▁grid	-11981
▁gwen	-11982
▁harm	-11983
▁herb	-11984
▁holl	-11985
▁holt	-11986
▁howl	-11987
▁iain	-11988
▁ibup	-11989
▁icen	-11990
▁idio	-11991
▁inus	-11992
▁jasm	-11993
▁jeal	-11994
▁jerk	-11995
▁joey	-11996
▁keri	-11997
▁klum	-11998
▁koen	-11999
aka	-12000
▁85	-12001
▁ov	-12002
▁sr	-12003
▁ws	-12004
coal	-12005
dest	-12006
ongs	-12007
shbo	-12008
sher	-12009
shoe	-12010
tend	-12011
▁209	-12012
▁asu	-12013
▁ros	-12014
▁wsj	-12015
acola	-12016
arber	-12017
icked	-12018
icken	-12019
iffer	-12020
inkla	-12021
joice	-12022
trans	-12023
▁2070	-12024
▁aest	-12025
▁asap	-12026
▁clam	-12027
▁ears	-12028
▁fare	-12029
▁fink	-12030
▁haim	-12031
▁hess	-12032
▁kohn	-12033
▁kris	-12034
▁lamp	-12035
▁lanc	-12036
▁lift	-12037
▁lily	-12038
▁lols	-12039
▁loot	-12040
▁lurk	-12041
▁mcch	-12042
▁mcke	-12043
▁mdna	-12044
▁migr	-12045
▁mina	-12046
▁moby	-12047
▁murs	-12048
▁naya	-12049
▁nowf	-12050
▁nycs	-12051
▁okay	-12052
▁oops	-12053
▁ozzy	-12054
▁pace	-12055
▁pals	-12056
▁pans	-12057
▁piol	-12058
▁pipe	-12059
▁piss	-12060
▁pitb	-12061
▁pree	-12062
▁rabe	-12063
▁rack	-12064
▁rafi	-12065
▁rend	-12066
▁reys	-12067
▁rhet	-12068
▁ripd	-12069
▁ripe	-12070
▁rome	-12071
▁rsvp	-12072
▁rust	-12073
▁scra	-12074
▁scul	-12075
▁seni	-12076
▁seti	-12077
▁shoe	-12078
▁slum	-12079
▁stir	-12080
▁stup	-12081
▁suck	-12082
▁sued	-12083
▁sust	-12084
▁swap	-12085
▁synd	-12086
▁tara	-12087
▁task	-12088
▁tico	-12089
▁torn	-12090
▁trou	-12091
▁twot	-12092
▁tyga	-12093
▁tyra	-12094
▁unbe	-12095
▁vert	-12096
▁vijs	-12097
▁visa	-12098
▁wonk	-12099
dos	-12100
zie	-12101
aren	-12102
arez	-12103
asty	-12104
card	-12105
ceda	-12106
dahl	-12107
emar	-12108
emen	-12109
eson	-12110
omer	-12111
pire	-12112
ruci	-12113
▁Man	-12114
▁alv	-12115
▁brb	-12116
▁cem	-12117
▁dak	-12118
▁dmt	-12119
▁fac	-12120
▁sri	-12121
astas	-12122
baity	-12123
borne	-12124
enzie	-12125
owner	-12126
ropre	-12127
▁2003	-12128
▁allf	-12129
▁alve	-12130
▁arth	-12131
▁brat	-12132
▁chab	-12133
▁impl	-12134
▁ined	-12135
▁rett	-12136
▁stem	-12137
▁teal	-12138
▁upro	-12139
▁vast	-12140
▁wwii	-12141
▁xlix	-12142
▁yard	-12143
abelle	-12144
affair	-12145
aleesi	-12146
ampsia	-12147
anding	-12148
announ	-12149
anooga	-12150
araoke	-12151
aryana	-12152
asheer	-12153
assion	-12154
atible	-12155
august	-12156
carena	-12157
cedent	-12158
chanan	-12159
chanel	-12160
cheese	-12161
cobars	-12162
comedy	-12163
connor	-12164
conson	-12165
cowell	-12166
crazed	-12167
cussed	-12168
dayold	-12169
decess	-12170
dollar	-12171
ductor	-12172
ectomy	-12173
effect	-12174
ematic	-12175
ercard	-12176
ermuda	-12177
eteria	-12178
flying	-12179
forget	-12180
fortat	-12181
fuffle	-12182
herita	-12183
holder	-12184
ibbean	-12185
ibling	-12186
icides	-12187
icking	-12188
iderio	-12189
igrade	-12190
igsegg	-12191
ilocks	-12192
imeter	-12193
imovic	-12194
integr	-12195
ipedia	-12196
itizes	-12197
iverse	-12198
landia	-12199
gm	-12200
kk	-12201
né	-12202
cus	-12203
gun	-12204
non	-12205
asha	-12206
call	-12207
hard	-12208
ledo	-12209
omei	-12210
part	-12211
rash	-12212
usty	-12213
▁Wal	-12214
▁feb	-12215
▁kel	-12216
▁kes	-12217
▁kkk	-12218
▁ksw	-12219
▁mae	-12220
▁mgm	-12221
ardys	-12222
kreli	-12223
local	-12224
nesia	-12225
oover	-12226
piece	-12227
verys	-12228
▁Miss	-12229
▁bich	-12230
▁geri	-12231
▁hail	-12232
▁irre	-12233
▁jess	-12234
▁maks	-12235
▁pref	-12236
▁preh	-12237
▁stim	-12238
ambard	-12239
anders	-12240
asting	-12241
mentia	-12242
mokers	-12243
nament	-12244
nandez	-12245
ningss	-12246
object	-12247
ocacom	-12248
ogenic	-12249
ometer	-12250
omondo	-12251
ongest	-12252
ophole	-12253
orexia	-12254
orsuch	-12255
oughly	-12256
ourish	-12257
ourite	-12258
ournes	-12259
outure	-12260
ovskis	-12261
pipraz	-12262
ractor	-12263
recogn	-12264
rewell	-12265
rigger	-12266
rofoam	-12267
shield	-12268
stress	-12269
thanex	-12270
thodox	-12271
thulhu	-12272
toilet	-12273
trumpp	-12274
uggets	-12275
ulsion	-12276
ulsive	-12277
unders	-12278
undice	-12279
upiter	-12280
uplets	-12281
utcher	-12282
ventil	-12283
wealth	-12284
wegian	-12285
weiler	-12286
▁11000	-12287
▁26000	-12288
▁40000	-12289
▁Arhat	-12290
▁Evans	-12291
▁Manch	-12292
▁Naomi	-12293
▁Nixon	-12294
▁Tyson	-12295
▁admin	-12296
▁alito	-12297
▁alley	-12298
▁alton	-12299
iy	-12300
hot	-12301
▁Am	-12302
▁Ap	-12303
▁mp	-12304
avia	-12305
bitt	-12306
hand	-12307
ilan	-12308
into	-12309
ours	-12310
rine	-12311
rium	-12312
seud	-12313
stru	-12314
ultz	-12315
uted	-12316
▁Mal	-12317
▁lev	-12318
▁lut	-12319
▁osu	-12320
▁rin	-12321
cycle	-12322
endum	-12323
icist	-12324
inead	-12325
oteur	-12326
▁1961	-12327
▁3000	-12328
▁abst	-12329
▁arms	-12330
▁cort	-12331
▁lutz	-12332
▁newh	-12333
▁whil	-12334
▁wifi	-12335
celand	-12336
guests	-12337
ioneer	-12338
istice	-12339
ourdan	-12340
rombie	-12341
terson	-12342
▁April	-12343
▁Bened	-12344
▁Milan	-12345
▁Rebel	-12346
▁amtra	-12347
▁anisk	-12348
▁antig	-12349
▁antil	-12350
▁antiv	-12351
▁aplus	-12352
▁ariel	-12353
▁arrow	-12354
▁bahar	-12355
▁bears	-12356
▁bench	-12357
▁bette	-12358
▁biden	-12359
▁bigot	-12360
▁blare	-12361
▁bless	-12362
▁bliss	-12363
▁bloss	-12364
▁blown	-12365
▁bombs	-12366
▁bonne	-12367
▁booth	-12368
▁brash	-12369
▁brené	-12370
▁brody	-12371
▁bruce	-12372
▁bryce	-12373
▁burnt	-12374
▁cacao	-12375
▁carbs	-12376
▁celia	-12377
▁chand	-12378
▁chant	-12379
▁chers	-12380
▁chmer	-12381
▁clara	-12382
▁clift	-12383
▁clone	-12384
▁cobra	-12385
▁cosby	-12386
▁cspan	-12387
▁cuddy	-12388
▁cutie	-12389
▁depth	-12390
▁diane	-12391
▁diddy	-12392
▁diets	-12393
▁diplo	-12394
▁ditto	-12395
▁doesn	-12396
▁dopps	-12397
▁dozen	-12398
▁drewb	-12399
12	-12400
hh	-12401
xi	-12402
yo	-12403
his	-12404
lif	-12405
sgo	-12406
trs	-12407
▁ml	-12408
▁uh	-12409
▁vw	-12410
▁yo	-12411
arat	-12412
auro	-12413
edel	-12414
enel	-12415
sson	-12416
▁soo	-12417
▁ves	-12418
▁von	-12419
▁wra	-12420
enger	-12421
itals	-12422
jarat	-12423
▁1993	-12424
▁Mara	-12425
▁beam	-12426
▁bret	-12427
▁csgo	-12428
▁ctrs	-12429
▁dial	-12430
▁isol	-12431
▁judd	-12432
▁mara	-12433
▁tiss	-12434
abetta	-12435
backed	-12436
hammad	-12437
intest	-12438
ittata	-12439
owners	-12440
report	-12441
▁Teach	-12442
▁barra	-12443
▁bezos	-12444
▁chatt	-12445
▁eaten	-12446
▁eerie	-12447
▁epide	-12448
▁erica	-12449
▁erupt	-12450
▁esera	-12451
▁etiqu	-12452
▁evans	-12453
▁faris	-12454
▁flats	-12455
▁frant	-12456
▁frust	-12457
▁gabri	-12458
▁genes	-12459
▁giver	-12460
▁gobsm	-12461
▁golub	-12462
▁goods	-12463
▁gooey	-12464
▁grizz	-12465
▁haven	-12466
▁heidi	-12467
▁hijab	-12468
▁hobby	-12469
▁hoist	-12470
▁hoped	-12471
▁hough	-12472
▁hulus	-12473
▁idaho	-12474
▁immac	-12475
▁immun	-12476
▁ingen	-12477
▁inker	-12478
▁innov	-12479
▁ipads	-12480
▁irish	-12481
▁izomb	-12482
▁jaime	-12483
▁joker	-12484
▁jokes	-12485
▁kaifs	-12486
▁kesha	-12487
▁kihei	-12488
▁kitty	-12489
▁kohli	-12490
▁lacey	-12491
▁lackl	-12492
▁lavar	-12493
▁leeza	-12494
▁lekae	-12495
▁leroy	-12496
▁lgbtq	-12497
▁lifel	-12498
▁links	-12499
SA	-12500
él	-12501
aid	-12502
bun	-12503
hoo	-12504
jaw	-12505
lde	-12506
oof	-12507
pri	-12508
sex	-12509
yna	-12510
zan	-12511
▁98	-12512
▁dt	-12513
▁ji	-12514
▁ql	-12515
▁rr	-12516
ando	-12517
eper	-12518
esur	-12519
icas	-12520
iven	-12521
lick	-12522
ogan	-12523
▁527	-12524
▁ASA	-12525
▁Jud	-12526
▁cpr	-12527
▁dtc	-12528
▁pam	-12529
▁pel	-12530
▁phd	-12531
▁sha	-12532
arted	-12533
atsby	-12534
▁Erin	-12535
▁bulg	-12536
▁dess	-12537
▁devs	-12538
▁mine	-12539
▁qloo	-12540
▁root	-12541
finger	-12542
inness	-12543
▁aberc	-12544
▁coron	-12545
▁debun	-12546
▁fargo	-12547
▁glory	-12548
▁italy	-12549
▁lacks	-12550
▁lists	-12551
▁liver	-12552
▁locks	-12553
▁loose	-12554
▁lords	-12555
▁malin	-12556
▁meant	-12557
▁mense	-12558
▁meryl	-12559
▁messi	-12560
▁metab	-12561
▁mindy	-12562
▁miniv	-12563
▁mosas	-12564
▁myfit	-12565
▁nairn	-12566
▁naomi	-12567
▁nasty	-12568
▁navys	-12569
▁newst	-12570
▁nicki	-12571
▁ninja	-12572
▁nobod	-12573
▁noone	-12574
▁novak	-12575
▁oblig	-12576
▁octom	-12577
▁ollie	-12578
▁onand	-12579
▁orang	-12580
▁osteo	-12581
▁ozone	-12582
▁pablo	-12583
▁pairs	-12584
▁paleo	-12585
▁palin	-12586
▁pauls	-12587
▁peers	-12588
▁perks	-12589
▁picab	-12590
▁pimco	-12591
▁pinup	-12592
▁pixar	-12593
▁potty	-12594
▁prank	-12595
▁promo	-12596
▁pryor	-12597
▁pseud	-12598
▁pupil	-12599
zs	-12600
edz	-12601
mat	-12602
pen	-12603
sts	-12604
▁ku	-12605
ildi	-12606
inis	-12607
onor	-12608
rant	-12609
▁120	-12610
▁cox	-12611
▁rea	-12612
▁sed	-12613
▁sot	-12614
aceut	-12615
ailed	-12616
arras	-12617
edith	-12618
mesis	-12619
omous	-12620
poken	-12621
veras	-12622
▁1960	-12623
▁chen	-12624
▁keys	-12625
▁obst	-12626
▁shay	-12627
▁stor	-12628
▁usbc	-12629
▁vuit	-12630
ieffer	-12631
issors	-12632
ortino	-12633
▁andor	-12634
▁chedz	-12635
▁endof	-12636
▁forth	-12637
▁hines	-12638
▁lacro	-12639
▁orbit	-12640
▁putin	-12641
▁queer	-12642
▁radel	-12643
▁rains	-12644
▁raper	-12645
▁rauch	-12646
▁reloc	-12647
▁revis	-12648
▁rifle	-12649
▁rings	-12650
▁risqu	-12651
▁rolls	-12652
▁ronan	-12653
▁rover	-12654
▁runin	-12655
▁sacha	-12656
▁salam	-12657
▁salon	-12658
▁scale	-12659
▁scare	-12660
▁schum	-12661
▁scifi	-12662
▁shiba	-12663
▁shore	-12664
▁shots	-12665
▁shrub	-12666
▁singh	-12667
▁sitin	-12668
▁skate	-12669
▁skull	-12670
▁socks	-12671
▁spell	-12672
▁spook	-12673
▁spree	-12674
▁stats	-12675
▁subar	-12676
▁suits	-12677
▁sushi	-12678
▁syrup	-12679
▁takei	-12680
▁thiel	-12681
▁threw	-12682
▁thugs	-12683
▁tikka	-12684
▁tomei	-12685
▁tonic	-12686
▁torre	-12687
▁towns	-12688
▁toxin	-12689
▁tries	-12690
▁trous	-12691
▁twist	-12692
▁tygas	-12693
▁tyson	-12694
▁tzatz	-12695
▁unequ	-12696
▁unfil	-12697
▁unpre	-12698
▁usual	-12699
03	-12700
yi	-12701
fro	-12702
har	-12703
iji	-12704
iou	-12705
oni	-12706
ori	-12707
pit	-12708
▁ai	-12709
▁aj	-12710
▁bs	-12711
▁dv	-12712
▁qa	-12713
▁vs	-12714
alow	-12715
core	-12716
▁Mar	-12717
▁ket	-12718
▁lik	-12719
▁veg	-12720
House	-12721
ullsh	-12722
▁Tenn	-12723
▁carl	-12724
▁dice	-12725
▁didn	-12726
▁dope	-12727
▁harr	-12728
▁ihop	-12729
▁outh	-12730
▁rein	-12731
athers	-12732
bourne	-12733
endall	-12734
▁Spain	-12735
▁booty	-12736
▁celeb	-12737
▁conan	-12738
▁depot	-12739
▁drown	-12740
▁ibrah	-12741
▁longe	-12742
▁seeks	-12743
▁theat	-12744
▁tiara	-12745
▁vegas	-12746
▁verda	-12747
▁virat	-12748
▁vocab	-12749
▁waits	-12750
▁wakey	-12751
▁walls	-12752
▁wells	-12753
▁whirl	-12754
▁wield	-12755
▁willy	-12756
▁windy	-12757
▁wings	-12758
▁wives	-12759
▁yorks	-12760
▁zooey	-12761
Nations	-12762
address	-12763
advisor	-12764
anthrop	-12765
ashmiri	-12766
assized	-12767
astered	-12768
aternal	-12769
atholic	-12770
benefit	-12771
bombing	-12772
brother	-12773
causing	-12774
commend	-12775
defying	-12776
derdale	-12777
ederate	-12778
eminist	-12779
envenue	-12780
fielder	-12781
gescale	-12782
heating	-12783
ibalism	-12784
ielynch	-12785
issions	-12786
istoric	-12787
kovskiy	-12788
leather	-12789
madison	-12790
minally	-12791
morning	-12792
mouthed	-12793
nesspal	-12794
ntellig	-12795
oftouch	-12796
ooxygen	-12797
painted	-12798
pective	-12799
48	-12800
wl	-12801
fty	-12802
ryn	-12803
ses	-12804
▁cd	-12805
drop	-12806
eena	-12807
fess	-12808
ride	-12809
▁Ber	-12810
▁til	-12811
bacca	-12812
eller	-12813
illan	-12814
large	-12815
▁1700	-12816
▁2020	-12817
▁chan	-12818
▁lyme	-12819
▁yuan	-12820
annily	-12821
raught	-12822
▁decor	-12823
▁gitmo	-12824
▁mandy	-12825
▁stash	-12826
ensions	-12827
raising	-12828
ranklin	-12829
riating	-12830
roblems	-12831
running	-12832
ssaints	-12833
stalgia	-12834
student	-12835
trigger	-12836
umberto	-12837
unities	-12838
warzene	-12839
weekold	-12840
whelmed	-12841
wrinkle	-12842
xpialid	-12843
▁250000	-12844
▁263500	-12845
▁450000	-12846
▁Arabic	-12847
▁Centre	-12848
▁Durant	-12849
▁Easter	-12850
▁Greene	-12851
▁Mobile	-12852
▁Muslim	-12853
▁Stella	-12854
▁Thanks	-12855
▁Walter	-12856
▁absent	-12857
▁adjust	-12858
▁agents	-12859
▁aguero	-12860
▁akshay	-12861
▁allure	-12862
▁alqaed	-12863
▁alyson	-12864
▁amtrak	-12865
▁apatow	-12866
▁appeal	-12867
▁arabic	-12868
▁argues	-12869
▁arnabs	-12870
▁ascent	-12871
▁assess	-12872
▁asthma	-12873
▁astley	-12874
▁astraz	-12875
▁astron	-12876
▁audrey	-12877
▁aussie	-12878
▁avenue	-12879
▁averys	-12880
▁baffle	-12881
▁baking	-12882
▁ballet	-12883
▁barely	-12884
▁baxter	-12885
▁beagle	-12886
▁begich	-12887
▁beware	-12888
▁blamed	-12889
▁blasio	-12890
▁bleach	-12891
▁bluish	-12892
▁boards	-12893
▁bonech	-12894
▁borrow	-12895
▁brewer	-12896
▁brunch	-12897
▁bubble	-12898
▁buckle	-12899
▁bummer	-12900
▁bumper	-12901
▁bunton	-12902
▁busted	-12903
▁canned	-12904
▁cannon	-12905
▁capcom	-12906
▁catsup	-12907
▁centar	-12908
▁cheats	-12909
▁cheeky	-12910
▁cheryl	-12911
▁cirque	-12912
▁clause	-12913
▁cloudy	-12914
▁compos	-12915
▁connor	-12916
▁convoy	-12917
▁corrie	-12918
▁cosmic	-12919
▁curtis	-12920
▁cybill	-12921
▁cyborg	-12922
▁damian	-12923
▁dangal	-12924
▁debbie	-12925
▁denial	-12926
▁denied	-12927
▁denies	-12928
▁dental	-12929
▁deteri	-12930
▁dinkla	-12931
▁disgra	-12932
▁dishes	-12933
▁dispro	-12934
▁domain	-12935
▁donors	-12936
▁doover	-12937
▁dormer	-12938
▁drones	-12939
▁duffie	-12940
▁dunkin	-12941
▁durant	-12942
▁eminem	-12943
▁eraser	-12944
▁evanna	-12945
▁exempl	-12946
▁extant	-12947
▁extend	-12948
▁extent	-12949
▁extrem	-12950
▁fallin	-12951
▁filing	-12952
▁floral	-12953
▁formed	-12954
▁frantz	-12955
▁freeze	-12956
▁fringe	-12957
▁froome	-12958
▁fugate	-12959
▁gallup	-12960
▁gamely	-12961
▁gandhi	-12962
▁garage	-12963
▁gastro	-12964
▁gatsby	-12965
▁gavron	-12966
▁gawker	-12967
▁gelman	-12968
▁gholip	-12969
▁glitzy	-12970
▁gloria	-12971
▁greene	-12972
▁guidel	-12973
▁hamill	-12974
▁hammer	-12975
▁handed	-12976
▁hangry	-12977
▁harvey	-12978
▁header	-12979
▁hearty	-12980
▁heirlo	-12981
▁heroic	-12982
▁hiccup	-12983
▁hosted	-12984
▁houses	-12985
▁humili	-12986
▁humour	-12987
▁hunnam	-12988
▁hunter	-12989
▁idiocy	-12990
▁imperi	-12991
▁ingame	-12992
▁insist	-12993
▁instru	-12994
▁integr	-12995
▁ivanka	-12996
▁jacobs	-12997
▁jambox	-12998
▁janjay	-12999
▁johnny	-13000
▁kamali	-13001
▁kanyes	-13002
▁kaplan	-13003
▁karner	-13004
▁kaylee	-13005
▁khalil	-13006
▁kimchi	-13007
▁kiraly	-13008
▁knight	-13009
▁kswiss	-13010
▁lachey	-13011
▁lacrim	-13012
▁landed	-13013
▁larter	-13014
▁layers	-13015
▁layoff	-13016
▁legger	-13017
▁leslie	-13018
▁lights	-13019
▁lionel	-13020
▁liquid	-13021
▁listed	-13022
▁locust	-13023
▁maccas	-13024
▁madeup	-13025
▁maksim	-13026
▁malcom	-13027
▁malnut	-13028
▁marine	-13029
▁marisa	-13030
▁masala	-13031
▁mascot	-13032
▁mashup	-13033
▁mchale	-13034
▁mckean	-13035
▁mensez	-13036
▁mercer	-13037
▁midler	-13038
▁midway	-13039
▁mirror	-13040
▁misrep	-13041
▁mobile	-13042
▁moodal	-13043
▁morano	-13044
▁morell	-13045
▁morgan	-13046
▁mostre	-13047
▁motors	-13048
▁motown	-13049
▁mudder	-13050
▁mystic	-13051
▁naming	-13052
▁nearby	-13053
▁neeson	-13054
▁nipple	-13055
▁norton	-13056
▁notsos	-13057
▁nowomg	-13058
▁noynoy	-13059
▁obtain	-13060
▁oceans	-13061
▁octane	-13062
▁oftend	-13063
▁onepot	-13064
▁onfire	-13065
▁opener	-13066
▁outage	-13067
▁pacman	-13068
▁papers	-13069
▁parity	-13070
▁planes	-13071
▁points	-13072
▁portra	-13073
▁powers	-13074
▁pratts	-13075
▁preecl	-13076
▁prizes	-13077
▁profit	-13078
▁prompt	-13079
▁pushup	-13080
▁puzzle	-13081
▁quinns	-13082
▁quokka	-13083
▁rafael	-13084
▁rafati	-13085
▁rapist	-13086
▁rebuff	-13087
▁reclut	-13088
▁redire	-13089
▁reform	-13090
▁remade	-13091
▁remind	-13092
▁replic	-13093
▁repute	-13094
▁ringer	-13095
▁risqué	-13096
▁robach	-13097
▁rocker	-13098
▁romant	-13099
▁roshan	-13100
▁roster	-13101
▁rrated	-13102
▁ruling	-13103
▁rupert	-13104
▁rushes	-13105
▁sample	-13106
▁sanjay	-13107
▁santas	-13108
▁savory	-13109
▁sculpt	-13110
▁sealed	-13111
▁selfin	-13112
▁sergio	-13113
▁servat	-13114
▁sharon	-13115
▁shorts	-13116
▁sinead	-13117
▁sitcom	-13118
▁sixton	-13119
▁skiing	-13120
▁slayer	-13121
▁slices	-13122
▁smriti	-13123
▁sorrow	-13124
▁sphere	-13125
▁spicer	-13126
▁sprout	-13127
▁stands	-13128
▁steals	-13129
▁stella	-13130
▁strips	-13131
▁stroll	-13132
▁struck	-13133
▁stupid	-13134
▁styles	-13135
▁subaru	-13136
▁suburb	-13137
▁supere	-13138
▁supper	-13139
▁surfac	-13140
▁sweaty	-13141
▁tagged	-13142
▁talked	-13143
▁temple	-13144
▁tennis	-13145
▁teslas	-13146
▁thesis	-13147
▁thomas	-13148
▁thrift	-13149
▁tiberi	-13150
▁toluca	-13151
▁travis	-13152
▁trevor	-13153
▁trials	-13154
▁trophy	-13155
▁tuaolo	-13156
▁tyrann	-13157
▁ubuntu	-13158
▁unkill	-13159
▁unsold	-13160
▁urchin	-13161
▁uriatt	-13162
▁vandal	-13163
▁vaping	-13164
▁vardys	-13165
▁viewed	-13166
▁virgin	-13167
▁wallet	-13168
▁whales	-13169
▁whiner	-13170
▁wicked	-13171
▁willem	-13172
▁wisdom	-13173
▁wisely	-13174
▁worked	-13175
▁xfiles	-13176
▁youtub	-13177
▁zamata	-13178
▁zapdos	-13179
▁zinger	-13180
acerated	-13181
alachian	-13182
assandra	-13183
cedented	-13184
ckingham	-13185
deprived	-13186
drilling	-13187
educated	-13188
ertainty	-13189
ervation	-13190
esurfing	-13191
factscom	-13192
favorite	-13193
friendly	-13194
grossing	-13195
intellig	-13196
lication	-13197
otherapy	-13198
pleasant	-13199
returned	-13200
▁Charles	-13201
▁Lincoln	-13202
▁Lindsay	-13203
▁Melissa	-13204
▁Nigeria	-13205
▁Seattle	-13206
▁Tiffany	-13207
▁Turkish	-13208
▁abolish	-13209
▁abysmal	-13210
▁admiral	-13211
▁adriana	-13212
▁affects	-13213
▁aguilar	-13214
▁airfare	-13215
▁alvarez	-13216
▁amateur	-13217
▁amnesia	-13218
▁amusing	-13219
▁analogy	-13220
▁analyze	-13221
▁andrews	-13222
▁antigay	-13223
▁antiwar	-13224
▁anxious	-13225
▁appeals	-13226
▁armisen	-13227
▁arrests	-13228
▁ashford	-13229
▁assange	-13230
▁aureate	-13231
▁avocado	-13232
▁babysit	-13233
▁baptist	-13234
▁bartlet	-13235
▁bathing	-13236
▁bedtime	-13237
▁bennett	-13238
▁bernies	-13239
▁biggies	-13240
▁bismuth	-13241
▁blasted	-13242
▁blocked	-13243
▁blossom	-13244
▁bobbitt	-13245
▁boehner	-13246
▁boltons	-13247
▁bulldog	-13248
▁bullied	-13249
▁bullsht	-13250
▁burying	-13251
▁buscemi	-13252
▁campese	-13253
▁canalis	-13254
▁candoni	-13255
▁caramel	-13256
▁careers	-13257
▁carving	-13258
▁casteen	-13259
▁chabert	-13260
▁charger	-13261
▁chariot	-13262
▁cheaper	-13263
▁chehadé	-13264
▁chipped	-13265
▁classes	-13266
▁coating	-13267
▁coleman	-13268
▁comcast	-13269
▁comeans	-13270
▁comedic	-13271
▁compens	-13272
▁contend	-13273
▁continu	-13274
▁coroner	-13275
▁costars	-13276
▁couture	-13277
▁covered	-13278
▁cowrite	-13279
▁crackle	-13280
▁craters	-13281
▁cruelty	-13282
▁crumble	-13283
▁cthulhu	-13284
▁curator	-13285
▁dawkins	-13286
▁deborah	-13287
▁decides	-13288
▁deflate	-13289
▁dentist	-13290
▁depends	-13291
▁dessert	-13292
▁dietary	-13293
▁dispute	-13294
▁dissent	-13295
▁dosecom	-13296
▁drastic	-13297
▁dreamer	-13298
▁drizzle	-13299
▁drogokh	-13300
▁duchess	-13301
▁dumbest	-13302
▁dumping	-13303
▁elector	-13304
▁empower	-13305
▁engaged	-13306
▁excruci	-13307
▁factory	-13308
▁fancier	-13309
▁fatally	-13310
▁feeding	-13311
▁ferment	-13312
▁fighter	-13313
▁fingers	-13314
▁firebre	-13315
▁fivecar	-13316
▁focused	-13317
▁forcing	-13318
▁frailty	-13319
▁freddys	-13320
▁fresher	-13321
▁gayincl	-13322
▁gearing	-13323
▁generic	-13324
▁gesture	-13325
▁gillian	-13326
▁gilmore	-13327
▁gmofree	-13328
▁googled	-13329
▁googley	-13330
▁gorsuch	-13331
▁greeter	-13332
▁grimmie	-13333
▁grownup	-13334
▁guessed	-13335
▁hallway	-13336
▁handled	-13337
▁handles	-13338
▁hanging	-13339
▁hardest	-13340
▁harpist	-13341
▁haryana	-13342
▁hayride	-13343
▁heather	-13344
▁hiccups	-13345
▁higgins	-13346
▁hockett	-13347
▁hospice	-13348
▁hrithik	-13349
▁hubbell	-13350
▁icarlys	-13351
▁immense	-13352
▁impeach	-13353
▁insight	-13354
▁intelle	-13355
▁intimid	-13356
▁invader	-13357
▁ireland	-13358
▁izombie	-13359
▁jameson	-13360
▁janeiro	-13361
▁janemar	-13362
▁jasmine	-13363
▁jealous	-13364
▁jenelle	-13365
▁jessica	-13366
▁jonguns	-13367
▁jourdan	-13368
▁karaoke	-13369
▁kathryn	-13370
▁keibler	-13371
▁kendall	-13372
▁kennedy	-13373
▁kinneys	-13374
▁knocked	-13375
▁kumbles	-13376
▁kutcher	-13377
▁labmade	-13378
▁lacroix	-13379
▁larsson	-13380
▁layoffs	-13381
▁leaking	-13382
▁legally	-13383
▁liberal	-13384
▁library	-13385
▁lithium	-13386
▁livelys	-13387
▁lowpoly	-13388
▁luckily	-13389
▁maddows	-13390
▁maguire	-13391
▁marvels	-13392
▁meester	-13393
▁melting	-13394
▁menstru	-13395
▁midgame	-13396
▁migrant	-13397
▁mohenjo	-13398
▁moltres	-13399
▁monicas	-13400
▁monitor	-13401
▁mooncop	-13402
▁muppets	-13403
▁museums	-13404
▁natasha	-13405
▁neander	-13406
▁newhart	-13407
▁nipples	-13408
▁nobodys	-13409
▁notably	-13410
▁oconnor	-13411
▁octavia	-13412
▁octomom	-13413
▁operate	-13414
▁oppress	-13415
▁outages	-13416
▁palette	-13417
▁pennies	-13418
▁periods	-13419
▁picking	-13420
▁pierced	-13421
▁pioneer	-13422
▁pitbull	-13423
▁plummet	-13424
▁pockets	-13425
▁pointer	-13426
▁porcine	-13427
▁portman	-13428
▁pricing	-13429
▁prisons	-13430
▁privacy	-13431
▁proctor	-13432
▁prolgbt	-13433
▁proving	-13434
▁psychic	-13435
▁pulling	-13436
▁puppies	-13437
▁quietly	-13438
▁rachael	-13439
▁rashida	-13440
▁reactor	-13441
▁rebuild	-13442
▁receipt	-13443
▁reckons	-13444
▁redress	-13445
▁registr	-13446
▁rejoice	-13447
▁reminds	-13448
▁reserve	-13449
▁rethink	-13450
▁rettner	-13451
▁rewrite	-13452
▁richest	-13453
▁rooneys	-13454
▁royalty	-13455
▁rubbing	-13456
▁ruining	-13457
▁runtime	-13458
▁sabrina	-13459
▁salceda	-13460
▁saoirse	-13461
▁sasheer	-13462
▁satisfy	-13463
▁scanner	-13464
▁schildi	-13465
▁schultz	-13466
▁scratch	-13467
▁seaside	-13468
▁semiaut	-13469
▁session	-13470
▁seventh	-13471
▁shakira	-13472
▁shapiro	-13473
▁shatter	-13474
▁shkreli	-13475
▁shorter	-13476
▁showsup	-13477
▁sibling	-13478
▁singers	-13479
▁sixhour	-13480
▁smaller	-13481
▁smither	-13482
▁sparked	-13483
▁splashy	-13484
▁standby	-13485
▁stanley	-13486
▁stardom	-13487
▁staring	-13488
▁startle	-13489
▁stefani	-13490
▁stepson	-13491
▁storysc	-13492
▁strikes	-13493
▁stylish	-13494
▁subcons	-13495
▁sweater	-13496
▁sweeten	-13497
▁sympath	-13498
▁tabares	-13499
▁tailend	-13500
▁talents	-13501
▁tallest	-13502
▁tamblyn	-13503
▁taveras	-13504
▁therapy	-13505
▁thewrap	-13506
▁thyroid	-13507
▁ticking	-13508
▁tiffany	-13509
▁tiniest	-13510
▁tobacco	-13511
▁toobusy	-13512
▁toppaid	-13513
▁tornado	-13514
▁trackie	-13515
▁trading	-13516
▁tragedy	-13517
▁treesor	-13518
▁turkish	-13519
▁twotime	-13520
▁ubisoft	-13521
▁undoubt	-13522
▁unenjoy	-13523
▁unlearn	-13524
▁upstate	-13525
▁valisia	-13526
▁vinegar	-13527
▁visibly	-13528
▁wealthy	-13529
▁whisper	-13530
▁whitney	-13531
▁widower	-13532
▁winfrey	-13533
▁wouldbe	-13534
▁wounded	-13535
▁wrinkle	-13536
aceutical	-13537
affiliate	-13538
announced	-13539
arthritis	-13540
commended	-13541
consonant	-13542
ealthiest	-13543
fessional	-13544
ibilities	-13545
iferation	-13546
naissance	-13547
offersons	-13548
piprazole	-13549
policeman	-13550
streaming	-13551
▁Benedict	-13552
▁Christie	-13553
▁Jurassic	-13554
▁Leonardo	-13555
▁Romanian	-13556
▁Sessions	-13557
▁actively	-13558
▁activist	-13559
▁adlibbed	-13560
▁admitted	-13561
▁adrienne	-13562
▁advocate	-13563
▁airborne	-13564
▁airspace	-13565
▁akermans	-13566
▁allergic	-13567
▁alveolar	-13568
▁ambivert	-13569
▁ancestor	-13570
▁andriani	-13571
▁angelous	-13572
▁appetite	-13573
▁articuno	-13574
▁assemble	-13575
▁assembly	-13576
▁autistic	-13577
▁avocados	-13578
▁bachmann	-13579
▁barefoot	-13580
▁baywatch	-13581
▁benedict	-13582
▁bergdahl	-13583
▁beyoncés	-13584
▁birdmans	-13585
▁blessing	-13586
▁blisters	-13587
▁blunders	-13588
▁bosworth	-13589
▁branches	-13590
▁bridgett	-13591
▁brinkley	-13592
▁bungalow	-13593
▁capitals	-13594
▁cappella	-13595
▁cardinal	-13596
▁cemetery	-13597
▁chairman	-13598
▁chaplain	-13599
▁charcoal	-13600
▁choosing	-13601
▁clapback	-13602
▁classics	-13603
▁clicking	-13604
▁colleges	-13605
▁colonial	-13606
▁combined	-13607
▁comiccon	-13608
▁commonly	-13609
▁commuter	-13610
▁compound	-13611
▁consoles	-13612
▁contrary	-13613
▁cornered	-13614
▁corvette	-13615
▁criteria	-13616
▁crumples	-13617
▁crushing	-13618
▁cucumber	-13619
▁culinary	-13620
▁cyclosis	-13621
▁davuluri	-13622
▁debullsh	-13623
▁december	-13624
▁declared	-13625
▁declares	-13626
▁dementia	-13627
▁dentists	-13628
▁direwolf	-13629
▁distract	-13630
▁distress	-13631
▁dolllike	-13632
▁dotmarie	-13633
▁douglass	-13634
▁downhill	-13635
▁downturn	-13636
▁drudgery	-13637
▁dumbbell	-13638
▁earthand	-13639
▁eldritch	-13640
▁elective	-13641
▁entirety	-13642
▁epidemic	-13643
▁episodes	-13644
▁escobars	-13645
▁espresso	-13646
▁expenses	-13647
▁exposing	-13648
▁extrater	-13649
▁facility	-13650
▁fairview	-13651
▁farewell	-13652
▁featured	-13653
▁feedback	-13654
▁feelings	-13655
▁feminine	-13656
▁figuring	-13657
▁filipina	-13658
▁findings	-13659
▁firmware	-13660
▁flawless	-13661
▁flooding	-13662
▁formerly	-13663
▁fourtime	-13664
▁franklin	-13665
▁frittata	-13666
▁fruitful	-13667
▁generate	-13668
▁girlshbo	-13669
▁goldblum	-13670
▁grandson	-13671
▁gretchen	-13672
▁gruesome	-13673
▁halfterm	-13674
▁hangover	-13675
▁hannigan	-13676
▁harangue	-13677
▁hateship	-13678
▁helpline	-13679
▁holidays	-13680
▁homeland	-13681
▁homicide	-13682
▁honestly	-13683
▁humberto	-13684
▁icenogle	-13685
▁included	-13686
▁includes	-13687
▁indicate	-13688
▁inedible	-13689
▁initiate	-13690
▁injuries	-13691
▁inquirer	-13692
▁insomnia	-13693
▁intercom	-13694
▁involves	-13695
▁isabelle	-13696
▁isambard	-13697
▁jaundice	-13698
▁jokingly	-13699
▁julianne	-13700
▁jurassic	-13701
▁ketamine	-13702
▁kristian	-13703
▁leblancs	-13704
▁leonardo	-13705
▁listings	-13706
▁loophole	-13707
▁lovegood	-13708
▁loveship	-13709
▁lowering	-13710
▁macarena	-13711
▁marauder	-13712
▁margaery	-13713
▁marrying	-13714
▁mashedup	-13715
▁mattress	-13716
▁mcmillan	-13717
▁messages	-13718
▁metastas	-13719
▁micheles	-13720
▁mistress	-13721
▁monogamy	-13722
▁morbidly	-13723
▁mosasaur	-13724
▁motoring	-13725
▁movement	-13726
▁musthave	-13727
▁nerdiest	-13728
▁networks	-13729
▁newfound	-13730
▁newsthen	-13731
▁ornament	-13732
▁outhouse	-13733
▁overturn	-13734
▁pakistan	-13735
▁paradise	-13736
▁patricks	-13737
▁patronus	-13738
▁peterson	-13739
▁pinpoint	-13740
▁pintauro	-13741
▁pokémons	-13742
▁policies	-13743
▁portugal	-13744
▁presence	-13745
▁pretense	-13746
▁proleave	-13747
▁protects	-13748
▁provided	-13749
▁pulitzer	-13750
▁pumpkins	-13751
▁punished	-13752
▁punisher	-13753
▁pursuing	-13754
▁quitting	-13755
▁quizzing	-13756
▁radiance	-13757
▁receiver	-13758
▁receives	-13759
▁referred	-13760
▁relocate	-13761
▁remedies	-13762
▁reprisal	-13763
▁requires	-13764
▁respects	-13765
▁restroom	-13766
▁returner	-13767
▁revamped	-13768
▁revenant	-13769
▁romanian	-13770
▁routines	-13771
▁rulebook	-13772
▁saboteur	-13773
▁samsungs	-13774
▁sandlers	-13775
▁santacon	-13776
▁satriani	-13777
▁scaryand	-13778
▁schirkoa	-13779
▁schooler	-13780
▁sciatica	-13781
▁scissors	-13782
▁scotland	-13783
▁sergeant	-13784
▁sharpton	-13785
▁sheriffs	-13786
▁shortage	-13787
▁shortcut	-13788
▁shoutout	-13789
▁smallpox	-13790
▁smoothly	-13791
▁spinning	-13792
▁spraying	-13793
▁sriracha	-13794
▁stpierre	-13795
▁strainer	-13796
▁stressed	-13797
▁strongly	-13798
▁struggle	-13799
▁studying	-13800
▁subtypes	-13801
▁supplier	-13802
▁supplies	-13803
▁suppress	-13804
▁sweeping	-13805
▁syndrome	-13806
▁tattooed	-13807
▁teammate	-13808
▁thompson	-13809
▁trackers	-13810
▁traverse	-13811
▁treasury	-13812
▁triangle	-13813
▁tzatziki	-13814
▁undereye	-13815
▁underway	-13816
▁unforget	-13817
▁vertical	-13818
▁villains	-13819
▁washingt	-13820
▁weaponry	-13821
▁websites	-13822
▁wellness	-13823
▁werewolf	-13824
▁whitehot	-13825
▁wilmores	-13826
▁workouts	-13827
▁yearbook	-13828
califragil	-13829
centigrade	-13830
controlled	-13831
intestinal	-13832
ooxygenase	-13833
▁Manhattan	-13834
▁Tennessee	-13835
▁achieving	-13836
▁adventure	-13837
▁aesthetic	-13838
▁agreethis	-13839
▁alcoholic	-13840
▁alexandra	-13841
▁allfemale	-13842
▁animosity	-13843
▁antilgbtq	-13844
▁appetizer	-13845
▁argentina	-13846
▁argentine	-13847
▁auditions	-13848
▁authentic	-13849
▁avocation	-13850
▁badminton	-13851
▁baltimore	-13852
▁bartender	-13853
▁bernthals	-13854
▁bienvenue	-13855
▁bigscreen	-13856
▁bollywood	-13857
▁buildings	-13858
▁cafeteria	-13859
▁cardinals	-13860
▁carefully	-13861
▁cartridge	-13862
▁censoring	-13863
▁chewbacca	-13864
▁chopstick	-13865
▁cigarette	-13866
▁classroom	-13867
▁clockwise	-13868
▁cockroach	-13869
▁complains	-13870
▁concerned	-13871
▁conductor	-13872
▁continues	-13873
▁cosmetics	-13874
▁coworkers	-13875
▁crossfits	-13876
▁crutchers	-13877
▁dedicated	-13878
▁delivered	-13879
▁denningss	-13880
▁deschanel	-13881
▁describes	-13882
▁desiderio	-13883
▁designate	-13884
▁destroyed	-13885
▁dietician	-13886
▁disintegr	-13887
▁donatella	-13888
▁economist	-13889
▁enclosure	-13890
▁encounter	-13891
▁endomondo	-13892
▁equipment	-13893
▁etiquette	-13894
▁extensive	-13895
▁favorites	-13896
▁favourite	-13897
▁gamingdom	-13898
▁generally	-13899
▁gentleman	-13900
▁gholipour	-13901
▁globalist	-13902
▁grillroom	-13903
▁hairstyle	-13904
▁harbinger	-13905
▁healthily	-13906
▁hernandez	-13907
▁highspeed	-13908
▁historian	-13909
▁huffposts	-13910
▁hyperloop	-13911
▁ibuprofen	-13912
▁impulsive	-13913
▁incorrect	-13914
▁insidious	-13915
▁insomniac	-13916
▁internets	-13917
▁inventory	-13918
▁involving	-13919
▁katyperry	-13920
▁kerfuffle	-13921
▁lagerfeld	-13922
▁laughably	-13923
▁leftovers	-13924
▁linkbaity	-13925
▁marketing	-13926
▁marriages	-13927
▁massively	-13928
▁mcchicken	-13929
▁mcnuggets	-13930
▁metrocard	-13931
▁midengine	-13932
▁mindfully	-13933
▁miniature	-13934
▁minnesota	-13935
▁necessary	-13936
▁negociate	-13937
▁nostalgia	-13938
▁nowfamous	-13939
▁occasions	-13940
▁olympians	-13941
▁orangutan	-13942
▁organized	-13943
▁osbournes	-13944
▁ovulation	-13945
▁passiveag	-13946
▁paternity	-13947
▁patronize	-13948
▁patterson	-13949
▁pesticide	-13950
▁physicist	-13951
▁poisonous	-13952
▁pokeballs	-13953
▁pokestops	-13954
▁policeman	-13955
▁practices	-13956
▁predecess	-13957
▁presenter	-13958
▁primetime	-13959
▁principle	-13960
▁proarctic	-13961
▁probation	-13962
▁protected	-13963
▁providing	-13964
▁rebelling	-13965
▁reclining	-13966
▁recordlow	-13967
▁refinance	-13968
▁regretful	-13969
▁relatable	-13970
▁relevance	-13971
▁remasters	-13972
▁reporters	-13973
▁resurrect	-13974
▁ridership	-13975
▁schieffer	-13976
▁sciortino	-13977
▁selection	-13978
▁sequester	-13979
▁shameless	-13980
▁shootings	-13981
▁shortterm	-13982
▁slideshow	-13983
▁spotlight	-13984
▁standouts	-13985
▁stardates	-13986
▁stonewall	-13987
▁strongest	-13988
▁teammates	-13989
▁titfortat	-13990
▁transpire	-13991
▁ultimatum	-13992
▁uncannily	-13993
▁unearthed	-13994
▁unexplain	-13995
▁unrelated	-13996
▁urdocacom	-13997
▁vanishing	-13998
▁versatile	-13999
▁victorias	-14000
▁welcoming	-14001
▁whitakers	-14002
▁whitewash	-14003
▁wikipedia	-14004
▁wonderful	-14005
▁worsening	-14006
intelligent	-14007
ntelligence	-14008
ventilation	-14009
warzenegger	-14010
▁Disneyland	-14011
▁Manchester	-14012
▁aniversary	-14013
▁antivaxxer	-14014
▁assortment	-14015
▁australias	-14016
▁autonomous	-14017
▁battleship	-14018
▁bellyuntil	-14019
▁bikiniclad	-14020
▁biologists	-14021
▁bonneville	-14022
▁breaststro	-14023
▁brownstein	-14024
▁buckingham	-14025
▁capitalist	-14026
▁chronology	-14027
▁collective	-14028
▁comparable	-14029
▁compassion	-14030
▁compatible	-14031
▁compelling	-14032
▁confession	-14033
▁craigslist	-14034
▁crazyviral	-14035
▁decelerate	-14036
▁definition	-14037
▁delightful	-14038
▁destroying	-14039
▁determined	-14040
▁disneyland	-14041
▁distortion	-14042
▁distraught	-14043
▁elisabetta	-14044
▁enthusiasm	-14045
▁eurovision	-14046
▁exercising	-14047
▁expectancy	-14048
▁fatherland	-14049
▁freakiness	-14050
▁friendship	-14051
▁gobsmacked	-14052
▁goldilocks	-14053
▁gryffindor	-14054
▁hemsworths	-14055
▁highlights	-14056
▁historians	-14057
▁homecooked	-14058
▁homeowners	-14059
▁immaculate	-14060
▁impersonal	-14061
▁impression	-14062
▁incestuous	-14063
▁individual	-14064
▁indulgence	-14065
▁inherently	-14066
▁initiative	-14067
▁instagrams	-14068
▁intimidate	-14069
▁invitation	-14070
▁koenigsegg	-14071
▁largescale	-14072
▁lauderdale	-14073
▁liveaction	-14074
▁louisville	-14075
▁mainstream	-14076
▁margherita	-14077
▁mastectomy	-14078
▁mastercard	-14079
▁mathematic	-14080
▁meningitis	-14081
▁middleaged	-14082
▁minimalism	-14083
▁mistakenly	-14084
▁mockingjay	-14085
▁multiverse	-14086
▁nationally	-14087
▁nonenglish	-14088
▁optimistic	-14089
▁outoftouch	-14090
▁overlooked	-14091
▁performing	-14092
▁persuasive	-14093
▁pharmacist	-14094
▁physically	-14095
▁pixelnexus	-14096
▁plagiarize	-14097
▁plantbased	-14098
▁pokévision	-14099
▁predicting	-14100
▁pretending	-14101
▁prevention	-14102
▁processing	-14103
▁protesting	-14104
▁prototypes	-14105
▁psychology	-14106
▁referendum	-14107
▁registered	-14108
▁remastered	-14109
▁repeatedly	-14110
▁rightfully	-14111
▁schoolmate	-14112
▁schumacher	-14113
▁selfridges	-14114
▁sideeffect	-14115
▁similarity	-14116
▁skateboard	-14117
▁stoneheart	-14118
▁strengthen	-14119
▁superearth	-14120
▁superfoods	-14121
▁superhuman	-14122
▁supermodel	-14123
▁superstorm	-14124
▁systematic	-14125
▁terminally	-14126
▁terrorists	-14127
▁texassized	-14128
▁theatrical	-14129
▁thoroughly	-14130
▁tightening	-14131
▁unfiltered	-14132
▁unkillable	-14133
▁unpleasant	-14134
▁unreturned	-14135
▁uriattacks	-14136
▁vegetarian	-14137
▁vocabulary	-14138
▁wealthiest	-14139
▁wilderness	-14140
▁windshield	-14141
▁wraparound	-14142
portionately	-14143
thanexpected	-14144
▁Christopher	-14145
▁abercrombie	-14146
▁advertising	-14147
▁allegations	-14148
▁astrazeneca	-14149
▁battlefront	-14150
▁betteridges	-14151
▁businessman	-14152
▁cannibalism	-14153
▁celebrating	-14154
▁christopher	-14155
▁clickbaited	-14156
▁compartment	-14157
▁complaining	-14158
▁complicated	-14159
▁concentrate	-14160
▁consultancy	-14161
▁convenience	-14162
▁criminalize	-14163
▁cryotherapy	-14164
▁deadlinecom	-14165
▁deflategate	-14166
▁documentary	-14167
▁donationyou	-14168
▁electronica	-14169
▁endorsement	-14170
▁entertainer	-14171
▁entitlement	-14172
▁essentially	-14173
▁examination	-14174
▁exclusively	-14175
▁fastgrowing	-14176
▁fifthgrader	-14177
▁gandolfinis	-14178
▁gasguzzling	-14179
▁gingerbread	-14180
▁golubovskis	-14181
▁goodmorning	-14182
▁governments	-14183
▁halfbrother	-14184
▁hiddlestons	-14185
▁housekeeper	-14186
▁hundredyear	-14187
▁ibrahimovic	-14188
▁infuriating	-14189
▁inheritance	-14190
▁instruction	-14191
▁interaction	-14192
▁jtimberlake	-14193
▁kaepernicks	-14194
▁kickstarted	-14195
▁kitesurfing	-14196
▁koreanovela	-14197
▁lacrimation	-14198
▁legislature	-14199
▁lenadunhams	-14200
▁limitedtime	-14201
▁longrunning	-14202
▁neurologist	-14203
▁omgfactscom	-14204
▁overheating	-14205
▁palacerated	-14206
▁perspective	-14207
▁philanthrop	-14208
▁practically	-14209
▁predictable	-14210
▁predominate	-14211
▁prehistoric	-14212
▁professions	-14213
▁programming	-14214
▁promotional	-14215
▁pronouncing	-14216
▁protections	-14217
▁publication	-14218
▁resolutions	-14219
▁restaurants	-14220
▁restrictive	-14221
▁rickrolling	-14222
▁roleplaying	-14223
▁simoncowell	-14224
▁snapchatter	-14225
▁sociologist	-14226
▁spectacular	-14227
▁speculation	-14228
▁stimulation	-14229
▁streetlight	-14230
▁tripadvisor	-14231
▁tyrannosaur	-14232
▁unannounced	-14233
▁unbefitting	-14234
▁uncertainty	-14235
▁washingtons	-14236
isticexpialid	-14237
trumpproblems	-14238
▁Thanksgiving	-14239
▁antifeminist	-14240
▁applications	-14241
▁apprehension	-14242
▁aripiprazole	-14243
▁bonechilling	-14244
▁chmerkovskiy	-14245
▁circumstance	-14246
▁clintontrump	-14247
▁commissioner	-14248
▁commonwealth	-14249
▁congregation	-14250
▁considerable	-14251
▁deathdefying	-14252
▁definitively	-14253
▁destinations	-14254
▁digitalfirst	-14255
▁disappointed	-14256
▁excruciating	-14257
▁expectations	-14258
▁gayinclusive	-14259
▁highlighting	-14260
▁inconvenient	-14261
▁intellectual	-14262
▁irreversible	-14263
▁leastvisited	-14264
▁lesseducated	-14265
▁malnutrition	-14266
▁misrepresent	-14267
▁moodaltering	-14268
▁myfitnesspal	-14269
▁neuroscience	-14270
▁photobombing	-14271
▁pottymouthed	-14272
▁preeclampsia	-14273
▁presentation	-14274
▁prizefighter	-14275
▁reassignment	-14276
▁recluttering	-14277
▁registration	-14278
▁reutersipsos	-14279
▁sneakerheads	-14280
▁spraypainted	-14281
▁supplication	-14282
▁thanksgiving	-14283
▁underwhelmed	-14284
▁unhealthiest	-14285
▁universities	-14286
▁unproductive	-14287
▁administrator	-14288
▁alreadycrazed	-14289
▁ashleymadison	-14290
▁automatically	-14291
▁boozeguzzling	-14292
▁cancercausing	-14293
▁championships	-14294
▁deterioration	-14295
▁disappearance	-14296
▁drewbarrymore	-14297
▁drogokhaleesi	-14298
▁falconssaints	-14299
▁grammywinning	-14300
▁grilledcheese	-14301
▁guncontrolled	-14302
▁investigating	-14303
▁livestreaming	-14304
▁milliondollar	-14305
▁nbcnewsbetter	-14306
▁opportunities	-14307
▁proliferation	-14308
▁pseudoscience	-14309
▁sleepdeprived	-14310
▁unforgettable	-14311
▁unprecedented	-14312
▁accomplishment	-14313
▁cyclooxygenase	-14314
▁debullshitizes	-14315
▁embarrassingly	-14316
▁fastestgrowing	-14317
▁gwynethpaltrow	-14318
▁janemarielynch	-14319
▁kristoffersons	-14320
▁nuclearpowered	-14321
▁osteoarthritis	-14322
▁pharmaceutical	-14323
▁recordbreaking	-14324
▁schwarzenegger	-14325
▁subconsciously	-14326
▁unprofessional	-14327
▁employeesguests	-14328
▁highestgrossing	-14329
▁mexicanamerican	-14330
▁mostrecommended	-14331
▁supercalifragil	-14332
▁twentysomething	-14333
30	-14334
DS	-14335
sa	-14336
wo	-14337
Sec	-14338
Ser	-14339
ahs	-14340
alg	-14341
alp	-14342
bar	-14343
bsp	-14344
cob	-14345
deb	-14346
ded	-14347
ees	-14348
ega	-14349
lia	-14350
mac	-14351
rax	-14352
rug	-14353
tsd	-14354
ubs	-14355
ugs	-14356
xen	-14357
yme	-14358
ysf	-14359
▁36	-14360
▁58	-14361
▁62	-14362
▁64	-14363
▁68	-14364
▁No	-14365
▁Tr	-14366
▁az	-14367
▁gt	-14368
▁rb	-14369
▁si	-14370
▁yu	-14371
2017	-14372
addy	-14373
agan	-14374
agin	-14375
agne	-14376
agon	-14377
ahaw	-14378
amor	-14379
anos	-14380
argo	-14381
arky	-14382
arod	-14383
arok	-14384
atso	-14385
auld	-14386
aura	-14387
auty	-14388
aven	-14389
bish	-14390
bium	-14391
bury	-14392
camp	-14393
clim	-14394
conf	-14395
cord	-14396
cram	-14397
crew	-14398
crif	-14399
bat	-14400
cel	-14401
ogo	-14402
sea	-14403
sse	-14404
▁vo	-14405
▁vr	-14406
cler	-14407
diox	-14408
doer	-14409
eses	-14410
exia	-14411
face	-14412
gaga	-14413
ghte	-14414
hans	-14415
hung	-14416
iens	-14417
iley	-14418
ilit	-14419
imed	-14420
inho	-14421
inos	-14422
ipes	-14423
irth	-14424
isan	-14425
itos	-14426
izzy	-14427
kers	-14428
lack	-14429
lead	-14430
ledg	-14431
loft	-14432
loyd	-14433
mies	-14434
mind	-14435
mont	-14436
oard	-14437
oday	-14438
ofth	-14439
oler	-14440
onag	-14441
oned	-14442
ooly	-14443
osen	-14444
osul	-14445
oura	-14446
owed	-14447
palp	-14448
phas	-14449
pher	-14450
phia	-14451
pone	-14452
pret	-14453
quet	-14454
quia	-14455
rase	-14456
rene	-14457
resh	-14458
rias	-14459
rics	-14460
rsqu	-14461
ruce	-14462
ruff	-14463
sens	-14464
shfe	-14465
show	-14466
step	-14467
stoy	-14468
take	-14469
tech	-14470
uits	-14471
umed	-14472
umph	-14473
urys	-14474
usal	-14475
writ	-14476
ydia	-14477
ymes	-14478
▁350	-14479
▁850	-14480
▁Arm	-14481
▁Ben	-14482
▁Gib	-14483
▁Glo	-14484
▁Gra	-14485
▁Hit	-14486
▁Mad	-14487
▁Nev	-14488
▁Rus	-14489
▁Sum	-14490
▁Wis	-14491
▁adh	-14492
▁alt	-14493
▁amc	-14494
▁arc	-14495
▁bib	-14496
▁bmi	-14497
▁bye	-14498
▁cau	-14499
07	-14500
29	-14501
85	-14502
iw	-14503
Hol	-14504
bag	-14505
has	-14506
imp	-14507
not	-14508
oen	-14509
oin	-14510
▁ay	-14511
▁ms	-14512
▁vp	-14513
amas	-14514
enag	-14515
ibou	-14516
live	-14517
racy	-14518
real	-14519
thal	-14520
ties	-14521
▁112	-14522
▁Con	-14523
▁Dom	-14524
▁dil	-14525
▁dmx	-14526
▁doj	-14527
▁ecc	-14528
▁gib	-14529
▁gps	-14530
▁hug	-14531
▁imd	-14532
▁ink	-14533
▁kal	-14534
▁ken	-14535
▁lep	-14536
▁lis	-14537
▁luc	-14538
▁lum	-14539
▁mba	-14540
▁mcg	-14541
▁mrs	-14542
▁nod	-14543
▁ons	-14544
▁ott	-14545
▁peg	-14546
▁ras	-14547
▁ray	-14548
▁sar	-14549
▁sew	-14550
▁tah	-14551
▁tat	-14552
▁taw	-14553
▁tun	-14554
▁uks	-14555
▁vor	-14556
▁yea	-14557
72013	-14558
acles	-14559
adafy	-14560
agull	-14561
algam	-14562
alker	-14563
amins	-14564
amity	-14565
ampoo	-14566
ancer	-14567
anics	-14568
anton	-14569
apers	-14570
armed	-14571
asion	-14572
atary	-14573
atima	-14574
ausea	-14575
avory	-14576
becca	-14577
blers	-14578
bless	-14579
bones	-14580
cards	-14581
cerpt	-14582
colns	-14583
dible	-14584
donna	-14585
ected	-14586
eling	-14587
ellar	-14588
elsea	-14589
emies	-14590
ennis	-14591
erine	-14592
erios	-14593
ested	-14594
eters	-14595
evals	-14596
ffers	-14597
forty	-14598
gland	-14599
uv	-14600
Bus	-14601
icy	-14602
ser	-14603
sty	-14604
▁ga	-14605
▁vc	-14606
▁wu	-14607
chew	-14608
fund	-14609
gues	-14610
irus	-14611
ivoc	-14612
rees	-14613
▁cdc	-14614
▁fet	-14615
▁lou	-14616
▁mow	-14617
▁sue	-14618
▁zip	-14619
adder	-14620
erian	-14621
gging	-14622
grath	-14623
hanks	-14624
hibit	-14625
iatus	-14626
ibles	-14627
iders	-14628
idium	-14629
igans	-14630
igmat	-14631
igned	-14632
iller	-14633
index	-14634
ineph	-14635
iners	-14636
ining	-14637
latte	-14638
lenol	-14639
maids	-14640
merce	-14641
mitic	-14642
monox	-14643
oftwo	-14644
olars	-14645
olley	-14646
omaly	-14647
ombre	-14648
omers	-14649
onent	-14650
oning	-14651
ophen	-14652
oster	-14653
oters	-14654
oting	-14655
ounce	-14656
ource	-14657
pered	-14658
pitch	-14659
plant	-14660
raged	-14661
raine	-14662
ramar	-14663
ranco	-14664
rates	-14665
selin	-14666
shank	-14667
shots	-14668
ssest	-14669
stals	-14670
state	-14671
stobe	-14672
stood	-14673
terer	-14674
thole	-14675
tieth	-14676
today	-14677
uiche	-14678
uling	-14679
unami	-14680
urned	-14681
ushas	-14682
utant	-14683
utter	-14684
veled	-14685
venth	-14686
vinyl	-14687
wered	-14688
wives	-14689
▁1201	-14690
▁1970	-14691
▁1990	-14692
▁1998	-14693
▁Alas	-14694
▁Conf	-14695
▁Craw	-14696
▁Hart	-14697
▁Jack	-14698
▁Jeff	-14699
isy	-14700
▁tj	-14701
▁arr	-14702
▁Joel	-14703
▁Lucy	-14704
▁Mind	-14705
▁Nost	-14706
▁Rest	-14707
▁Rich	-14708
▁Well	-14709
▁abcs	-14710
▁acer	-14711
▁acou	-14712
▁acts	-14713
▁adds	-14714
▁adul	-14715
▁aids	-14716
▁arpa	-14717
▁beek	-14718
▁bore	-14719
▁boxy	-14720
▁bree	-14721
▁cach	-14722
▁cada	-14723
▁cait	-14724
▁caps	-14725
▁cola	-14726
▁cong	-14727
▁copy	-14728
▁cosy	-14729
▁cott	-14730
▁craz	-14731
▁dank	-14732
▁digs	-14733
▁disk	-14734
▁diva	-14735
▁dodo	-14736
▁doer	-14737
▁dyke	-14738
▁earl	-14739
▁ejac	-14740
▁eman	-14741
▁ende	-14742
▁eric	-14743
▁erik	-14744
▁feig	-14745
▁figs	-14746
▁fond	-14747
▁fuss	-14748
▁gods	-14749
▁goop	-14750
▁guer	-14751
▁gunk	-14752
▁hamp	-14753
▁hect	-14754
▁heig	-14755
▁herd	-14756
▁hulk	-14757
▁hulu	-14758
▁iced	-14759
▁imdb	-14760
▁impr	-14761
▁inex	-14762
▁iowa	-14763
▁iran	-14764
▁jets	-14765
▁joel	-14766
▁jord	-14767
▁jose	-14768
▁juan	-14769
▁kitt	-14770
▁lamb	-14771
▁laud	-14772
▁lend	-14773
▁lice	-14774
▁loud	-14775
▁lucy	-14776
▁lugg	-14777
▁lump	-14778
▁lviv	-14779
▁maga	-14780
▁maul	-14781
▁mend	-14782
▁miff	-14783
▁misd	-14784
▁mock	-14785
▁murd	-14786
▁nars	-14787
▁niet	-14788
[...]
